#version: 0.2
i n
e n</w>
i n</w>
e r</w>
e in
a n
c h
u n
in g</w>
e r
a r
s t
i t
a u
a n</w>
e in</w>
t h
e m</w>
r e
r o
e n
r a
s ch
ein em</w>
o n</w>
e l
a l
un d</w>
m an</w>
w e
m i
l a
th e</w>
an d</w>
ein e</w>
i s</w>
e s</w>
l e</w>
g e
au f</w>
s i
mi t</w>
o r
m an
b e
o n
d er</w>
c h</w>
i r
man n</w>
ein er</w>
a t
s p
o f</w>
l e
c k
s h
b o
r i
w it
wit h</w>
b l
g e</w>
d i
w o
a t</w>
o l
s s
e h
e t</w>
l o
s it
d o
d ing</w>
w h
c k</w>
o p
t en</w>
t o</w>
t w
i l
u r
i el
b a
n e
h r
un g</w>
f ra
ein en</w>
m ä
l i
fra u</w>
al l</w>
u t
m en</w>
d e</w>
p e
k ing</w>
di e</w>
wo man</w>
ar e</w>
p la
z we
o r</w>
i m</w>
tw o</w>
zwe i</w>
d en</w>
g en</w>
@ -
@- @</w>
er s
e i
a m
g ro
r u
d e
sp iel
ch en</w>
j un
g t</w>
a s</w>
sh ir
an d
w a
pe op
peop le</w>
t i
w al
s t</w>
t er
e d</w>
t ing</w>
f a
shir t</w>
c o
n n
m en
st eh
t a
ar ing</w>
t er</w>
t o
t s</w>
w ar
p ers
k l
sit z
pla y
au en</w>
u p</w>
we aring</w>
h o
b all</w>
b la
s k
w n</w>
v er
s e
p p
it e</w>
we i
d re
v on</w>
y o
f t</w>
p o
u m
k in
e m
m a
yo ung</w>
si ch</w>
d em</w>
bl u
wh ite</w>
re d</w>
b er
f ro
f o
ä l
b en</w>
g ir
st re
ch t</w>
mä d
s e</w>
s s</w>
p a
ß en</w>
h a
a r</w>
mäd chen</w>
h in
g ra
ge h
le i
m o
jun ge</w>
on e</w>
wh i
s o
bla ck</w>
c e</w>
w at
ä h
v or</w>
st ra
h is</w>
h ol
mä nn
t e</w>
sch war
b u
ß e</w>
g r
z u
whi le</w>
z u</w>
b i
er s</w>
blu e</w>
ein es</w>
st an
th er</w>
t r
bo y</w>
steh t</w>
t e
b y</w>
p ar
l ä
sit ting</w>
gir l</w>
i e
pp e</w>
sch en</w>
m e
k lei
fa hr
do g</w>
b en
männ er</w>
lo o
ch il
h und</w>
sitz t</w>
stan ding</w>
re n
f i
n t</w>
play ing</w>
t ra
c ro
r in
be i</w>
gro up</w>
g el
u t</w>
j a
si de</w>
er e</w>
d s</w>
schwar z
o ut
b er</w>
pers on</w>
stra ße</w>
al l
g ru
h er</w>
g er</w>
u l
h äl
w i
stre et</w>
l an
gru ppe</w>
n a
häl t</w>
a m</w>
w äh
do wn</w>
h em
wäh ren
währen d</w>
f or
wal king</w>
u m</w>
re e</w>
er en</w>
u g
en t
a l</w>
er t</w>
q u
spiel t</w>
fro nt</w>
au f
o t
er n</w>
ä n
i r</w>
hem d</w>
re i
p i
bo ar
d as</w>
ja ck
f ü
d r
n en</w>
k s</w>
k e</w>
hol ding</w>
st a
g h
o ther</w>
h at</w>
on en</w>
d ur
ü ber</w>
f e
b ri
m m
it t
pers onen</w>
d a
r un
g s</w>
hr t</w>
w or
n i
au s</w>
n o
am er
s in
f r
el l
kin d</w>
g u
wat er</w>
bl auen</w>
wa ss
i st</w>
dre i</w>
or an
f ar
y ing</w>
v i
v er</w>
th ree</w>
wei ßen</w>
th ro
g re
j e
e a
m e</w>
ar be
f u
i hr
sp rin
c ar
fr auen</w>
l l
ro ten</w>
wo men</w>
u ft</w>
b ro
b ra
ne ben</w>
v e</w>
s u
f el
steh en</w>
j um
loo king</w>
g en
i t</w>
spiel en</w>
l itt
arbe it
gr ü
sch au
gre en</w>
sitz en</w>
men schen</w>
f ä
p ing</w>
p f
s no
tr ä
litt le</w>
geh t</w>
a si
f or</w>
dur ch</w>
d es</w>
f f
ä u
sh o
l ar
chil d</w>
lo w</w>
b all
wal k</w>
e t
k i
sk at
k o
fä hrt</w>
t en
out side</w>
klei d
at i
po s
g er
c on
m u
li e
ug h</w>
m ar
h and</w>
trä gt</w>
s a
c t
lar ge</w>
gro und</w>
s ch</w>
wass er</w>
far ben
re nn
z e
h al
bra un
kin der</w>
v or
s m
h el
thro ugh</w>
i h
o ber
st i
an s</w>
ge b
sch ne
ei l</w>
bro wn</w>
ba ck
s en</w>
y el
p h
n e</w>
el e
g la
yel low</w>
and s</w>
z i
y s</w>
amer a</w>
kl eines</w>
h er
dr en</w>
chil dren</w>
un ter</w>
boar d</w>
w in
ma cht</w>
d er
c a
ra d</w>
bl on
sch e</w>
d y</w>
eh r
ut e</w>
l y</w>
c y
sprin gt</w>
el t</w>
cy c
bl i
l ing</w>
ent lan
schwarz en</w>
fro m</w>
th ei
thei r</w>
on g</w>
b ü
ck t</w>
dre ss
ch t
wei ß
re a
in to</w>
p in
par k</w>
gh t</w>
n ing</w>
t ri
p s</w>
kl einer</w>
g a
st ru
entlan g</w>
bu il
qu ot
quot ;</w>
& quot;</w>
t or
t eil</w>
st and</w>
x t</w>
ss en</w>
c lo
sh or
m ehr
le ute</w>
sm all</w>
ck en</w>
am e</w>
ne xt</w>
b le</w>
th ing</w>
skat e
kleid ung</w>
a ir</w>
geh en</w>
v ers
st r
s ur
cro w
o f
dress ed</w>
o ut</w>
ss es</w>
p er
f ri
c ol
w ir
so me</w>
st u
un ter
in e</w>
f rei
u r</w>
spiel er</w>
geb äu
o ver</w>
v ing</w>
lä ch
we g</w>
m al
s c
h i
st ü
oran ge</w>
buil ding</w>
d d
p ro
l s</w>
t z
e tw
d en
äl ter
bo o
ar o
for m
b au
mo tor
ri ding</w>
etw as</w>
p u
run ning</w>
mehr ere</w>
wi mm
s einem</w>
ober teil</w>
un i
ur e</w>
r an
l le</w>
h ea
gro ßen</w>
ge sch
ne ar</w>
s eh
hin ter
a ch</w>
m p
jack et</w>
to p</w>
o d</w>
aro und</w>
an other</w>
p le</w>
grü nen</w>
jack e</w>
f iel
f en
si de
f lo
ba by</w>
d ar
au s
so me
schau t</w>
t an
k t</w>
jun gen</w>
w er
ch ing</w>
bri lle</w>
t al
s on
s mi
men t</w>
fiel d</w>
re st
gr und</w>
c ti
ta ble</w>
side walk</w>
t re
r ü
o l</w>
a pos
& apos
s en
je ans</w>
z ei
w ing</w>
it y</w>
k op
gla sses</w>
h e</w>
crow d</w>
be ach</w>
m it
bl au
ti sch</w>
g ing</w>
le t
ar r
pin k</w>
l er</w>
fu ß
v ol
r au
ck s</w>
b and</w>
b e</w>
k a
bi ke</w>
lä uft</w>
le a
c ing</w>
f l
f in
e y</w>
st ands</w>
f la
wa y</w>
o m</w>
h ut</w>
hin d</w>
farben en</w>
de d</w>
ph one</w>
klei de
ba se
sit s</w>
shor ts</w>
jum ping</w>
sin d</w>
h un
h and
fahr rad</w>
e l</w>
be hind</w>
str and</w>
fü r</w>
d an
ck e</w>
zu g</w>
hinter grund</w>
ba sk
sno w</w>
c er</w>
frei en</w>
eh t</w>
b t</w>
mu si
el n</w>
z en</w>
it s</w>
f en</w>
ch es</w>
gra ss</w>
ch e</w>
st o
ö r
l uft</w>
ha ir</w>
men ge</w>
&apos ;
s am
g es</w>
n äh
back ground</w>
ar i
and eren</w>
sch en
j o
h än
c ity</w>
b an
l es</w>
gebäu de</w>
cyc le</w>
co u
jun ger</w>
ch e
gel ben</w>
b il
ge kleide
asi an</w>
&apos; s</w>
g o
hin ter</w>
gir ls</w>
of f</w>
d et</w>
auf en</w>
u s
for m</w>
g i
k ü
ro ll
b ar
ze u
un ta
g it
fo ot
pi ct
si e</w>
play er</w>
hal ten</w>
h ü
b al
a d
p ol
n en
st er</w>
sno w
dre ss</w>
na ch</w>
m ü
c i
fahr er</w>
loo ks</w>
w all</w>
p an
schwar z</w>
s un
do gs</w>
vi er</w>
st ei
v es</w>
t t
men schen
gu it
and ere</w>
a d</w>
k er</w>
ol d</w>
p er</w>
ver al</w>
c e
ar d</w>
st ri
fo ur</w>
th at</w>
sp or
se veral</w>
schwarz er</w>
c li
ol der</w>
kl eine</w>
g ar
t em</w>
ge l</w>
bo den</w>
p ul
d ern</w>
fel d</w>
bask et
s we
s h</w>
n er</w>
c amera</w>
l in
f er</w>
sch ie
näh e</w>
bo ys</w>
an i
pe d</w>
wir d</w>
rest au
restau ran
ü ber
e it
be im</w>
pla t
d un
tal king</w>
skate board</w>
st en</w>
h or
some thing</w>
la dy</w>
e ssen</w>
blon d</w>
seh en</w>
s and</w>
k amera</w>
sch u
p re
kl einen</w>
so c
soc cer</w>
fo od</w>
at ing</w>
weiß er</w>
an der</w>
v e
be i
wal ks</w>
sta d
menschen menge</w>
guit ar</w>
ein ander</w>
cro ss</w>
al s</w>
hun de</w>
al ong</w>
arr e</w>
z t</w>
po ol</w>
h ne</w>
ch er</w>
wor king</w>
ro ck</w>
sch wimm
pla y</w>
pa ar</w>
to ge
toge ther</w>
sp ie
f er
si g
per form
gra s</w>
ra d
vor bei</w>
zeu g</w>
ho ch</w>
gra y</w>
smi ling</w>
o b
sch la
b re
k ers</w>
schne e</w>
restauran t</w>
k es</w>
renn t</w>
oran ge
lie gt</w>
ir t</w>
ban k</w>
te l</w>
git arre</w>
stre i
son nen
cht et</w>
pict ure</w>
g ame</w>
ba h
zu sam
ro ad</w>
h as</w>
h en</w>
w and</w>
si eht</w>
ihr e</w>
foot ball</w>
f t
ein i
sch a
st e
r ying</w>
wa gen</w>
ati on</w>
su it</w>
or s</w>
c ar</w>
vers u
play s</w>
p e</w>
t y</w>
pf er
klei d</w>
fahr en</w>
en t</w>
mo unta
c an</w>
sch auen</w>
k en</w>
dd le</w>
ß en
renn en</w>
hol ds</w>
ihr en</w>
sch lä
hea d</w>
sh ing</w>
fa ce</w>
asi ati
arbeit er</w>
ss t</w>
po si
cti on</w>
pan ts</w>
cli m
s le
al e</w>
v iel
ben ch</w>
a b
ä r
at s</w>
h im</w>
and er
a bo
si t</w>
p ur
braun en</w>
braun er</w>
out do
g ri
ro om</w>
pa in
m at
let ter
k un
an zug</w>
wo o
d u
sta ge</w>
t ele
ver k
stei g</w>
n is</w>
k ro
in s</w>
gesch ä
a de</w>
st e</w>
h il
car rying</w>
älter er</w>
cou ple</w>
s ein</w>
h e
au ßen</w>
in stru
pol i
k letter
be t
t es</w>
m au
fu l</w>
f em
spie l</w>
m er</w>
bü hne</w>
ge gen
ba ck</w>
zusam men</w>
e x
dr außen</w>
be fin
be de
t ro
sp a
th em</w>
ih r</w>
swe at
base ball</w>
b un
bi cycle</w>
t ting</w>
stra ßen
sch er</w>
m s</w>
k ur
wa ch
t ree</w>
d rin
t ur
stad t</w>
sch ü
ho se</w>
h l</w>
da y</w>
w el
st or
mal e</w>
kop f</w>
her um</w>
fo to</w>
ra ce</w>
r ä
bü r
on s</w>
ch a
basket ball</w>
it i
s eine</w>
l ong</w>
l au
l l</w>
bli ckt</w>
bl o
ball spieler</w>
ta king</w>
co mp
amer i
geh weg</w>
mi ddle</w>
ea ch</w>
uni form</w>
sk i
sch ir
plat z</w>
mi kro
k e
co m
wach sen
to gra
arbeit et</w>
l aufen</w>
bo at</w>
z e</w>
do ing</w>
ch ten</w>
ber eit
s einen</w>
da bei</w>
c re
ar e
p ho
h ell
mi cro
d irt</w>
wat ching</w>
hel m</w>
a cross</w>
ta g</w>
sle e
gu y</w>
th ere</w>
wei ß</w>
tz e</w>
dar k</w>
are a</w>
te am</w>
s be
bu s</w>
skate boar
h an
f e</w>
tra gen</w>
versu cht</w>
l u
hin unter</w>
bla u</w>
wi e</w>
ten nis</w>
h l
ge si
co ver
ss en
jum ps</w>
st at
le d</w>
h ands</w>
co at</w>
boo t</w>
bede ck
et te</w>
ut h</w>
it ing</w>
ir e</w>
f on</w>
clim b
zei gt</w>
fem ale</w>
f ten</w>
ki ds</w>
g an
en de</w>
sp e
s and
f re
ein g</w>
ro t</w>
arbeit en</w>
st ell
perform ing</w>
p at
d ri
sch il
d ame</w>
wh o</w>
gro ße</w>
ge strei
w s</w>
shir ts</w>
re it
ck ing</w>
e ating</w>
ss e</w>
ma chen</w>
un der</w>
läch elt</w>
li chen</w>
ha ar
us ing</w>
t ru
c at
bah n</w>
b eing</w>
stri ped</w>
ri cht</w>
sig n</w>
ro s
orange farbenen</w>
mar k
le u
fa mi
u e</w>
ihr em</w>
c or
bür ger
man n
d ge</w>
sh a
i ert</w>
wat ch</w>
hor se</w>
t ed</w>
älter e</w>
tri ko
st s</w>
rad fahrer</w>
au to</w>
stor e</w>
sch n
man y</w>
fi t</w>
bil d</w>
s li
k ar
ih m</w>
ad ul
pur ple</w>
mo uth</w>
i red</w>
f an
stu hl</w>
jun ges</w>
con stru
bo w
ar m</w>
ir s</w>
er wachsen
mm t</w>
to war
th is</w>
loo k</w>
ha ired</w>
s es</w>
out fit</w>
lie st</w>
k el
ho sen</w>
gro ß
en den</w>
bürger steig</w>
sp richt</w>
s wimm
fe u
ch air</w>
p ut
l ine</w>
k u
en jo
en a
ander er</w>
win do
run s</w>
ho ck
fü hrt</w>
wass er
ros a</w>
pos ing</w>
rea ding</w>
i l</w>
gra ff
d ra
b ele
unter halten</w>
u s</w>
play ers</w>
sun glasses</w>
ss ing</w>
re s</w>
man tel</w>
constru ction</w>
at t
sp r
t u
m on
k an
in di
be tra
wor k</w>
kun st
haar en</w>
c es</w>
weiß em</w>
graff it
g ol
d in
co w
clo thing</w>
am m
s el
pfer d</w>
o ce
micro phone</w>
ar s</w>
a th
o ba
g h</w>
ba r</w>
to y</w>
sch t</w>
mounta in</w>
li ght</w>
gel än
oce an</w>
cover ed</w>
wor kers</w>
te ena
viel e</w>
k am
dur ing</w>
comp ut
a fri
ß t</w>
k on
c t</w>
w ä
u se</w>
sonnen brille</w>
k la
gr auen</w>
em p
zu m</w>
ze it
wat ches</w>
o ver
o p</w>
fl u
f all
en d</w>
t et</w>
sur f
st um
m et</w>
k it
hol z
di e
dan cing</w>
d ru
climb ing</w>
tri ck</w>
le y
k ör
blau em</w>
a ga
schne e
pa st</w>
n um
in st</w>
gekleide te</w>
er ten</w>
be oba
ar t</w>
s einer</w>
par k
outdo or</w>
ha ari
el der
elder ly</w>
b rau
zu schau
mü tze</w>
er i
schir m</w>
hel met</w>
col or
bau m</w>
tr in
to s</w>
s et</w>
gesi cht</w>
f ol
aga inst</w>
s ol
rau m</w>
geschä ft</w>
f ul
co o
tra in</w>
schil d</w>
fri sbe
c la
at e</w>
windo w</w>
w ie
um bre
sin gt</w>
p lan
j u
e y
wei ße</w>
ta l</w>
stü ck</w>
snow boar
kletter t</w>
i ce</w>
ri des</w>
o red</w>
le an
kop f
ko stü
ih nen</w>
graffit i</w>
e ts</w>
dun kel
vol ley
ut i
kl ein
c ell
th ey</w>
s si
fuß ball</w>
pu bli
k or
abo ut</w>
o th
motor rad</w>
flo w
fi ve</w>
col ored</w>
woo den</w>
v ie
ho ch
ga th
fü n
v en
tre es</w>
t y
sch ut
posi ert</w>
mar kt</w>
l it
bu s
ba g</w>
wa iting</w>
vers amm
ten ni
sp la
s er
pul lo
m in
ha ving</w>
fel sen</w>
dar auf</w>
tru ck</w>
fün f</w>
un g
t ü
pf en</w>
ob je
k ani
f li
den en</w>
ö ff
ver y</w>
st ein
spor t
hi gh</w>
eini ge</w>
bl es</w>
a b</w>
swimm ing</w>
c u
blau er</w>
befin det</w>
t h</w>
h ör
ge tting</w>
el n
co ur
wir ft</w>
co stum
n s</w>
flo or</w>
tr ying</w>
sch rei
frisbe e</w>
pullo ver</w>
n et</w>
mikro fon</w>
gath er
f fe
lean ing</w>
f il
color ful</w>
boo k</w>
bereit et</w>
ber ei
stat ue</w>
ss y</w>
seh r</w>
schwarz em</w>
g g
fen ster</w>
c al</w>
r ut
na ch
mm er</w>
li ch</w>
jum p</w>
gekleide ter</w>
cyc li
bus y</w>
sin ging</w>
schu hen</w>
le it
hil l</w>
fo re
fen ce</w>
tra ck</w>
ta sche</w>
sch o
i d</w>
el le</w>
c an
al ter</w>
tenni s
scha ft</w>
sa ck</w>
mark et</w>
m ut
it t</w>
de o</w>
clo th
car t</w>
be cken</w>
triko t</w>
le h
er in</w>
ck et</w>
ch in
wie se</w>
te il
ro tem</w>
ro sa
of fi
me er</w>
grü n
d ers</w>
sprin gen</w>
schwarz e</w>
schau k
s ä
s ing</w>
o der</w>
ge d</w>
wal d</w>
ter n</w>
si l
ro ter</w>
me t
lan gen</w>
kör per</w>
kin dern</w>
com pe
mit ten</w>
läch eln
li che</w>
instru men
hü gel</w>
en s</w>
b rü
ro un
ri de</w>
p ie
i sst</w>
bi g</w>
wh e
sh op
roll er</w>
männ ern</w>
la ying</w>
in side</w>
f on
volley ball</w>
h ats</w>
gestrei ften</w>
bo dy</w>
blu se</w>
war tet</w>
t an</w>
schne i
ca p</w>
sto ck</w>
gan g</w>
bri ght</w>
y m
su b
sho p</w>
oth ers</w>
kit chen</w>
pla sti
pat h</w>
m men</w>
gra ssy</w>
cell phone</w>
spiel zeug</w>
some one</w>
par ade</w>
n y</w>
bu ch</w>
vol ler</w>
tre ppe</w>
schut z
ru ck
pre p
ma king</w>
bri ck</w>
au n</w>
u fer</w>
ta kes</w>
t t</w>
posi eren</w>
ni ght</w>
mal t</w>
k ä
ha ar</w>
cloth es</w>
back pa
b run
a p
un der
ti on</w>
sur roun
se ite</w>
motor cycle</w>
li cher</w>
fe sti
wer den</w>
umbre ll
umbrell a</w>
tan zen</w>
sch i
s k</w>
op en</w>
k ne
c ra
au ft</w>
an ge
über qu
wi schen</w>
towar ds</w>
ter s</w>
tan k</w>
h u
fuß ball
ful l</w>
fo togra
bele b
uni form
sweat shirt</w>
sch ul
ober körper</w>
o ben</w>
k ö
hock ey</w>
enjo ying</w>
ein k
comput er</w>
zi eht</w>
te am
sur fer</w>
se e</w>
pi er</w>
p ra
cht ung</w>
st one</w>
s wing</w>
me tal</w>
l and
h ä
e p</w>
dun kl
dan ce</w>
äu men</w>
um ge
ri ver</w>
pa per</w>
k ni
h t</w>
gar ette</w>
reit et</w>
rea dy</w>
pie ce</w>
ma sch
fü hr
f f</w>
at ed</w>
al ten</w>
z er</w>
spa zi
sh es</w>
or t</w>
h of</w>
bi kin
betra chtet</w>
a ge</w>
st er
ss er</w>
sh e</w>
s mo
par ty</w>
mau er</w>
i e</w>
b rea
z wischen</w>
war ten</w>
to u
pho togra
li e</w>
leu ten</w>
hand y</w>
gen ie
en e</w>
blon de</w>
ba de
b el
snowboar der</w>
o us</w>
instru ment</w>
h aus</w>
zi mmer</w>
sweat er</w>
me l</w>
lo t</w>
gri ll</w>
e v
c am
th e
schlä ft</w>
s ell
i c
en der</w>
ch s</w>
ber g</w>
al t
z aun</w>
wor ker</w>
tr itt</w>
tele fon
sti ck</w>
st ä
ru n</w>
ri e
kleid et</w>
feu er
b äumen</w>
a c
x ing</w>
la ke</w>
gr au
gel b
t at
stu den
pain ting</w>
leh nt</w>
ameri can</w>
abo ve</w>
o t</w>
m itt
hä uti
ho use</w>
ha ben</w>
h ard</w>
ge gen</w>
afri can</w>
sch ö
s qu
j ug
hän den</w>
go ing</w>
fan gen</w>
cow boy</w>
adul ts</w>
v ed</w>
shop ping</w>
re gen
musi c</w>
mau l</w>
hea d
h ei
f ter</w>
che er
bedeck ten</w>
ve st</w>
snow y</w>
on es</w>
mit einander</w>
kü che</w>
fu ß</w>
flu ss</w>
di es</w>
d iti
beoba chtet</w>
wa ve</w>
to dd
surroun ded</w>
sub way</w>
s car
qu i
po in
m mel</w>
g lei
en d
c ur
uniform s</w>
tan zt</w>
st elle</w>
p t
op s</w>
on to</w>
ihr er</w>
en en</w>
ch ter</w>
base ball
a pp
z o
ruck sack</w>
pho to</w>
outdo ors</w>
li ke</w>
l en</w>
klein kind</w>
ki d</w>
ge wä
el s</w>
crow ded</w>
ch ed</w>
brau n</w>
bau arbeiter</w>
z ie
ver schie
ri chtung</w>
pro te
po le</w>
o ff
läch eln</w>
le ss</w>
cou ch</w>
con vers
stell t</w>
smi les</w>
schie bt</w>
sch auf
k ari
h n
ge ar</w>
be side</w>
backpa ck</w>
b ir
bal an
b r
wel le</w>
v om</w>
ti schen</w>
sch ein
p on
masch ine</w>
lau gh
lan g
k re
il ing</w>
bar t</w>
ne w
ge tr
drin king</w>
befin den</w>
b or
we tt
t or</w>
st ro
spr ung</w>
schwimm becken</w>
rü cken</w>
ma ch
it en</w>
farben er</w>
fami ly</w>
eink auf
bikin i</w>
y ard</w>
we ste</w>
t au
st ation</w>
g o</w>
g n
g ers</w>
flow ers</w>
f ire</w>
ev ent</w>
bri dge</w>
be au
todd ler</w>
sp ea
skateboar der</w>
sch w
s er</w>
k ra
f läch
diti on
tra in
ro pe</w>
ro deo</w>
poli ce</w>
l ü
gu ys</w>
getr än
gather ed</w>
fo unta
eini gen</w>
beau ti
b ru
sho es</w>
or i
ni mmt</w>
mi lit
kur zen</w>
han ging</w>
g ent
fläch e</w>
ch er
be g
ar ms</w>
sho w</w>
schauk el</w>
sch es</w>
en ce</w>
cat ch</w>
asiati sche</w>
ar y</w>
a way</w>
we en</w>
sch ri
s win
prep aring</w>
pp en</w>
h ar
car ri
beauti ful</w>
b ur
z er
w and
tra dition
schnei det</w>
mar ath
c ut
brü cke</w>
aus ge
an st
zu r</w>
we hr
verk auft</w>
ta bles</w>
ste ps</w>
slee ping</w>
obje ct</w>
ma l</w>
m p</w>
in ter
hl en</w>
gebäu des</w>
fami lie</w>
em and</w>
costum e</w>
blu men</w>
bal lo
ar men</w>
wo od</w>
w il
un gen</w>
shor t</w>
mach ine</w>
m el
groß er</w>
fla g
fi shing</w>
c lu
au ss
att emp
ap pe
an t</w>
ameri kani
a fter</w>
versamm elt</w>
ver anst
u res</w>
trin kt</w>
st ar
rosa farbenen</w>
po se</w>
met all
la r</w>
j emand</w>
ffe e</w>
el ing</w>
auss eh
shir t
pla id</w>
n eh
mp e</w>
l and</w>
founta in</w>
er y</w>
bun ten</w>
ben ut
z ü
ta ke</w>
sta irs</w>
shirt less</w>
se tz
ll en</w>
hän gt</w>
gelän der</w>
f ru
erwachsen e</w>
ar ti
ar m
veranst alt
team s</w>
tat to
ro cks</w>
pin k
kä m
ih n</w>
grü n</w>
fl ug
di um</w>
d a</w>
cha irs</w>
bah n
au tos</w>
adul t</w>
st en
s al
ro te</w>
n st
fi re
drin k</w>
c ers</w>
ze ug
v al</w>
telefon iert</w>
st ung</w>
rei he</w>
j ers
ger ä
ger ade</w>
fre un
bl ä
veranstalt ung</w>
spazi eren</w>
s ed</w>
p it
he bt</w>
gla ss</w>
gent le
fe st</w>
chin e
beleb ten</w>
weiß es</w>
umge ben</w>
sun ny</w>
sell ing</w>
schwimm t</w>
schlä gt</w>
pra cti
pa dd
ne w</w>
hem den</w>
g lo
do or</w>
do ck</w>
bre tt</w>
bo x
bli cken</w>
win ter</w>
ul ti
u p
sk i</w>
ra cing</w>
mut ter</w>
fore st</w>
f all</w>
do es</w>
at en</w>
a ged</w>
w ü
son ni
se tting</w>
schla g
qui p
pro je
ne l</w>
la den</w>
kopf bedeck
k er
h ö
gewä sser</w>
farben em</w>
f lie
f le
e quip
cycli st</w>
cheer lea
z a
viel en</w>
vie w</w>
tr an
ti me</w>
teena ger</w>
t all</w>
stan ce</w>
so f
sh e
schnee bedeckten</w>
sc re
rä dern</w>
ra l</w>
p or
kostü m</w>
ge t</w>
ge kleidet</w>
fuß ballspieler</w>
frei em</w>
f liegt</w>
de cke</w>
d el
bi kes</w>
bereit en</w>
an gel
wat er
tr y</w>
scho ol</w>
s eil</w>
rü stung</w>
ro ck
put ting</w>
ko mmt</w>
ha pp
grün em</w>
gh t
fotogra fi
fla g</w>
ell en</w>
cyc les</w>
cor ner</w>
bo th</w>
thro wing</w>
sonni gen</w>
scar f</w>
publi k
publik um</w>
pu shing</w>
p f</w>
p es</w>
lä sst</w>
kü nst
hän de</w>
fi gh
c le
zei t</w>
ti ger</w>
stu fen</w>
sli de</w>
p fa
op e</w>
la dies</w>
l t</w>
kor b</w>
in gs</w>
in g
hi mmel</w>
ha ve</w>
equip ment</w>
d ung</w>
bet ween</w>
be festi
v eh
veh ic
t un
t ei
st ing</w>
sof a</w>
sk y</w>
publi c</w>
laugh ing</w>
käm pfen</w>
ho hen</w>
h n</w>
gel b</w>
g li
feuer wehr
di spla
co un
brun nen</w>
bet on
aus rüstung</w>
wh ere</w>
su n</w>
s ei
re par
ne t
la st
k at
jo g
instrumen ts</w>
her unter</w>
g rei
fü ll
e cke</w>
dunkl en</w>
al te</w>
öff ent
vor bei
vi o
un ten</w>
stan ge</w>
sho ul
schü r
r y</w>
pp ing</w>
pict ures</w>
ph ones</w>
ne d</w>
le y</w>
h au
fi sh</w>
ell er</w>
blau e</w>
be d</w>
bau m
zu schauen</w>
z z
sp an
ra mp</w>
r and</w>
plasti c</w>
oran gen</w>
na ck
musi k</w>
le ben
kopfbedeck ung</w>
kon z
kam pf
han g</w>
haari ge</w>
h am
fahr zeug</w>
do r</w>
da ch</w>
cht s
bow ling</w>
bo tt
berei ch</w>
ba se</w>
än gt</w>
zuschau er</w>
wor ks</w>
woo ds</w>
whi ch</w>
v o
tra il</w>
stä d
rea ds</w>
pro du
pos es</w>
play ground</w>
marath on</w>
ho o
ge mü
cre te</w>
con crete</w>
blon des</w>
b b
asiati scher</w>
überqu eren</w>
zeit ung</w>
us es</w>
tre ten</w>
t on</w>
stad t
sk irt</w>
mitt l
mann es</w>
k n
en ds</w>
di re
con c
bli ck</w>
be ard</w>
at er</w>
al i
whe el
ve ge
stü hlen</w>
spe ct
si gen</w>
sh i
ol in</w>
mi da
mida ir</w>
hal b</w>
em s</w>
b är
a ir
w ur
vio let
su its</w>
sho v
ro w</w>
pa pier</w>
num ber</w>
mann schaft</w>
ma sk
la p
jug end
ju st</w>
i gen</w>
hin auf</w>
f ei
ct ure</w>
tou ri
tele fon</w>
te ten</w>
sp re
se ated</w>
schri ft</w>
sc ope</w>
kunst stück</w>
kari erten</w>
k ha
g än
fo ot</w>
d ding</w>
bi ker</w>
be ar
ym na
ver schne
ung s
ul pt
sk lei
r ing</w>
photogra p
lin ed</w>
li gh
genie ßt</w>
g ymna
dunkel häuti
din gs</w>
di stance</w>
da von</w>
braun e</w>
ß er
zu sehen</w>
wh at</w>
towar d</w>
stre cke</w>
sit e</w>
si x</w>
schlä ger</w>
s ca
ra in</w>
mittl eren</w>
l k
kin der
di on</w>
bo x</w>
be er</w>
ba gs</w>
b s</w>
att ire</w>
at ors</w>
a pro
zü gen</w>
zuschau ern</w>
w en
v en</w>
ten t</w>
spr it
sol d
se chs</w>
pla ce</w>
par ti
musi ci
m ulti
m em
le ft</w>
lap top</w>
la cht</w>
l ying</w>
h r</w>
gi bt</w>
gel ber</w>
ge i
fel s
fel n</w>
el l</w>
coo king</w>
ve sts</w>
t än
st ie
ri ght</w>
ri der</w>
ra mpe</w>
ne ar
na h
mit te</w>
ma ke</w>
lä ufer</w>
k ti
ge bi
g ten</w>
führ en</w>
fil led</w>
cut ting</w>
cre am</w>
cour t</w>
clo wn</w>
boo ts</w>
blu men
bl an
benut zt</w>
be we
b at
w rest
w r
ul a</w>
spiel platz</w>
shor e</w>
s wi
s w
rut sche</w>
pul ling</w>
num mer</w>
new spa
leit er</w>
l il
groß es</w>
gri ll
gelän de
gegen stand</w>
fli p</w>
ck er
buil dings</w>
b ut
all y</w>
unter hält</w>
tur n
tun nel</w>
s am</w>
ra sen</w>
pre par
neh men</w>
mo ther</w>
men sch</w>
leben sm
ho me</w>
el y</w>
d au
compe t
base ballspieler</w>
al ters</w>
zu sieht</w>
uni for
trin ken</w>
tra mp
t on
spor t</w>
smo king</w>
re la
pa ss
p un
p en</w>
ne ben
kam pf</w>
hel men</w>
haari ger</w>
gg les</w>
g old</w>
fri ends</w>
fo tos</w>
fe l</w>
f äl
cro ssing</w>
conc ert</w>
cli ff</w>
ch ten
bu b
berei t</w>
b rin
b and
arr en</w>
appe ars</w>
ab ge
zu schaut</w>
wei h
weih na
spect ators</w>
sho wing</w>
schein t</w>
s z
neben einander</w>
na he</w>
mounta ins</w>
m er
lil a</w>
k en
in nen</w>
fuß gän
fer n
fe w</w>
e dge</w>
di g
bear ded</w>
b an</w>
au gen</w>
a ben
zie gel
y a
verschie den
sch wi
pf lan
out f
nach ts</w>
k li
jers ey</w>
hor ses</w>
ff er
ele ct
eh en</w>
d o</w>
car s</w>
bet t</w>
ba thing</w>
win ter
v ari
ty p</w>
t ers
surf board</w>
sklei dung</w>
s on</w>
s au
perform s</w>
p ped</w>
near by</w>
je man
hol z</w>
gebi et</w>
fa h
dri ving</w>
dress es</w>
ct or</w>
au ßer
ar ts</w>
zi garette</w>
z elt</w>
w er</w>
versu chen</w>
triko ts</w>
th a
teil en</w>
stre ckt</w>
st än
ss el</w>
sp ra
son ne</w>
sh al
schie d
sa x
ro tes</w>
per form</w>
outf its</w>
musi ker</w>
m und</w>
kostü men</w>
ka ppe</w>
hin ten</w>
h ula</w>
gla s</w>
di o</w>
cycli sts</w>
co ffee</w>
carri es</w>
bi er</w>
bele u
apro n</w>
ti al</w>
st ö
st un
st ern</w>
so ft
sk op</w>
schu he</w>
s o</w>
s an
mehr eren</w>
m ö
lea ves</w>
le gt</w>
fru it</w>
de l</w>
compet iti
ca ke</w>
z el
wer k
wer fen</w>
we it
ven dor</w>
vari ous</w>
studen ts</w>
stru cture</w>
schür ze</w>
sch al</w>
park ed</w>
pain ted</w>
p fi
n o</w>
lu ft
ir c
in ing</w>
gentle man</w>
flow er</w>
farben fro
far bi
f ängt</w>
cro ss
ci garette</w>
c up</w>
beoba chten</w>
ball s</w>
&apos ;</w>
öffent lichen</w>
yo un
youn ger</w>
we sten</w>
vehic le</w>
um e</w>
tal ks</w>
st ein</w>
smi le</w>
sho t</w>
sch ä
sch ei
s wagen</w>
s coo
rau cht</w>
op er
motor radfahrer</w>
mar tial</w>
künst ler</w>
kni et</w>
k et</w>
go ggles</w>
flag ge</w>
bu ll</w>
bei de</w>
wal k
w anderer</w>
verschne iten</w>
rut scht</w>
or k</w>
ni cht</w>
ni c</w>
lie gen</w>
li t</w>
ho op</w>
ght ly</w>
fla sche</w>
fl ying</w>
fer ne</w>
eh o
dru ms</w>
c al
bott le</w>
betra chten</w>
ath le
an zügen</w>
z ur
ti e</w>
sp it
sch win
rock y</w>
pain t</w>
la d
ki cking</w>
i eren</w>
hü ten</w>
h it</w>
grü ner</w>
fla gs</w>
f ts</w>
ey es</w>
coun try</w>
au se</w>
zei ch
z en
wo hn
wa ves</w>
ti gen</w>
t ä
swin ging</w>
si on</w>
sa fe
safe ty</w>
s ame</w>
prepar es</w>
pp i
par king</w>
on loo
newspa per</w>
kletter n</w>
jack ets</w>
indi an</w>
gu ckt</w>
gestrei f
ger ü
gel n</w>
geh steig</w>
geb ung</w>
ge m
fol gt</w>
erwachsen er</w>
die se</w>
di ffer
com ing</w>
ck ed</w>
blon den</w>
be u
al ley</w>
al en</w>
zo gen</w>
un d
tü r</w>
tennis ball</w>
sten ing</w>
ri st
ra il</w>
ra i
practi cing</w>
poli zi
plan e</w>
pfa d</w>
la chen</w>
j ü
ho t</w>
glo ves</w>
gemü se</w>
ga ther</w>
e ben</w>
drin ks</w>
differ ent</w>
d ir
costum es</w>
convers ation</w>
ca se</w>
c ting</w>
bär tiger</w>
bu cket</w>
ba d
außer halb</w>
zi ehen</w>
st y
sonnen unter
snow board</w>
skateboar ding</w>
sig ns</w>
sc ene</w>
ro of</w>
pa ss</w>
na cht</w>
me ts</w>
li stening</w>
lad der</w>
l en
kleid ern</w>
ka ya
happ y</w>
h ug
h aus
grei ft</w>
gem ein
ff en</w>
feu er</w>
de o
da ss</w>
competiti on</w>
ch i
ch en
ce ment</w>
c leaning</w>
bun ch</w>
a ch
zur ü
weihna chts
we t</w>
we t
wa it</w>
vi du
ver ti
tz en</w>
ta ck
sur ft</w>
st aring</w>
sp ar
re den</w>
onloo kers</w>
net z</w>
männ liche</w>
lan ge</w>
la ge</w>
l auf
konz ert</w>
it ems</w>
indi vidu
hol d</w>
gel e
gel be</w>
ga z
g ern</w>
ei s
cti ve</w>
blau es</w>
blan ket</w>
ber s</w>
au di
al es</w>
a k
z ed</w>
w an
tatto o</w>
sto p</w>
spor ts</w>
ski fahrer</w>
sin e
sc u
s ort</w>
rü ck
ra iling</w>
pi le</w>
me al</w>
la wn</w>
l ö
kö pfi
ka pu
hil ft</w>
ham mer</w>
gi ving</w>
gelb em</w>
ge pf
g y
fotografi ert</w>
fahr rad
emp ty</w>
dur ch
displa y</w>
de ssen</w>
de sk</w>
d on
d le</w>
ca fe</w>
bu sine
blä t
bi cycles</w>
ballo on</w>
auf schrift</w>
auf ge
audi ence</w>
al le</w>
a fro
tü r
tu ch</w>
städ tischen</w>
sonnenunter gang</w>
schu h</w>
schrei bt</w>
schla gen</w>
s na
pa ssen
milit ary</w>
mat ch</w>
m or
m as</w>
leu chten
lea ps</w>
k ei
il s</w>
ge ts</w>
fall en</w>
e is</w>
c ed</w>
bow l</w>
bir d</w>
beu gt</w>
bei den</w>
basket ballspieler</w>
b ä
au to
überqu ert</w>
äu fer</w>
z ist</w>
we dding</w>
war en</w>
vege tables</w>
un befesti
um gebung</w>
surf ing</w>
stre t
st arr
sli ding</w>
schö nen</w>
sch at
pp en
polizi sten</w>
poin ting</w>
ph on</w>
p al
op h
ob ser
nn en</w>
n am
mm er
l eine</w>
kla ssen
ke y
ka ja
her r</w>
ha are</w>
gol f</w>
gn eri
gerü st</w>
gather ing</w>
for e</w>
en a</w>
da men</w>
cro u
ck ten</w>
c ts</w>
bo ot
b in
at h</w>
arbe it</w>
versamm eln</w>
tr un
tha ari
stre ets</w>
sch mut
ro thaari
nack tem</w>
li ches</w>
k i</w>
jü n
jack en</w>
hör t</w>
gerä t</w>
gegen d</w>
ge wi
g le</w>
fi sch</w>
fe et</w>
fa cing</w>
ei mer</w>
compe ting</w>
cla ss</w>
cla ss
cha sing</w>
be fore</w>
bask et</w>
wei bli
v ater</w>
v an</w>
unifor men</w>
spre chen</w>
spea king</w>
sil ver</w>
sil ber
sax oph
poli zist</w>
plat form</w>
pla te</w>
ma sk</w>
lü ck
ligh ts</w>
li la
kei t</w>
hu ge</w>
hock ey
hel mets</w>
hand schuhen</w>
geträn k</w>
gestreif tem</w>
erwachsen en</w>
c s</w>
blon der</w>
bla sen</w>
ber g
basket ball
afri kani
y ork</w>
w ra
vor der
v y</w>
tri es</w>
te x
t ar
sol di
ski er</w>
schrei b
scha ft
sch lau
s lo
ru g
rei fen</w>
r ö
pe a
par t
p ati
o s</w>
mi r
lä n
luft ball
le sen</w>
le eren</w>
la s</w>
kopf hör
gar ten</w>
de s
cu sto
class room</w>
ch teten</w>
bri de</w>
blo ck</w>
är mel
wal d
wa its</w>
w är
tri cks</w>
tradition al</w>
th em
stie feln</w>
sti cks</w>
sin gs</w>
setz t</w>
se en</w>
scre en</w>
pur se</w>
pro fe
photogra ph
mounta in
lin g
ku chen</w>
k ed</w>
genie ßen</w>
fl ü
figh ting</w>
fa ther</w>
clu b</w>
climb s</w>
bade anzug</w>
wat te</w>
w as</w>
ur ing</w>
ur ban</w>
to wn</w>
swe e
sp i
sh ed</w>
sei fen
schwi mmen</w>
s än
s co
re gen</w>
p rin
musici ans</w>
mo bil
mir ro
kre u
ki ssing</w>
k ir
ja gt</w>
h aufen</w>
gelb es</w>
fe st
ent span
e u
dr y</w>
co unter</w>
ch te</w>
can o
busine ss</w>
brea k</w>
b m
asiati schen</w>
ar ena</w>
ani mal</w>
wo bei</w>
w ein
verschieden e</w>
ti er</w>
ta in
stu dio</w>
sta ir
st roller</w>
spiel zeug
sold aten</w>
slee p</w>
skat ing</w>
skat e</w>
sin gen</w>
se il
schlag zeug</w>
schei be</w>
sam m
run ner</w>
roll er
roller bla
pi ck
ob st</w>
o hne</w>
mask e</w>
li cht</w>
le der
land schaft</w>
ko mmen</w>
kar ate</w>
k aufen</w>
ir gen
in mitten</w>
hän d
gekleide ten</w>
ge w
fem ales</w>
fel l</w>
elect ri
de co
deco ra
de ck</w>
col le
ck ey</w>
c au
c and
brau t</w>
bil d
ber ü
an ten</w>
ß i
zei chen</w>
wr iting</w>
wer k</w>
walk way</w>
w ellen</w>
um arm
thro w</w>
tal k</w>
ta schen</w>
sun set</w>
stra ßen</w>
starr t</w>
shoul der</w>
scoo ter</w>
schwin gt</w>
schutz helm</w>
s um
s or
rie sigen</w>
regen schirm</w>
re fle
park platz</w>
p ers</w>
p ause</w>
lebensm itt
la p</w>
kne eling</w>
il y</w>
ho le</w>
grü ne</w>
grau em</w>
gen den</w>
far ben</w>
fa st</w>
f lei
f ans</w>
dre ht</w>
di ving</w>
ch ts</w>
braun em</w>
be di
bar e
b elt</w>
ar me</w>
älter en</w>
ym pi
wel l</w>
wa ving</w>
w under
w n
vi olin</w>
un ters
ti e
stun t</w>
ssen en</w>
so hn</w>
se l</w>
schwarz es</w>
sa chen</w>
roll ing</w>
rist mas</w>
ri chter</w>
ra si
pe l</w>
p rü
ol ine</w>
off en
me di
m ers</w>
lin ie</w>
li fe</w>
kinder wagen</w>
key board</w>
k au
k a</w>
git ar
gemein sam</w>
gebäu den</w>
fahr t</w>
ex am
d ü
chine se</w>
ch ristmas</w>
blo wing</w>
ber gen</w>
bal d</w>
bad eho
attemp ting</w>
ander es</w>
zusam men
wen det</w>
we ar</w>
w o</w>
vo gel</w>
vi deo</w>
tä to
täto wi
t te</w>
t op
straßen rand</w>
straßen ecke</w>
schü tt
sch lit
ro be</w>
re c
pers on
parti ci
p ft</w>
over looking</w>
off enen</w>
ma de</w>
lächeln d</w>
li es</w>
l on
kun den</w>
jugend licher</w>
h eit
grün es</w>
führ ung</w>
fin ger</w>
fel d
ein ge
cour se</w>
clo u
c ele
bo y
bau stelle</w>
balan ci
zurü ck</w>
we gs</w>
wa sch
umarm t</w>
tan k
ta sse</w>
st einen</w>
st am
ssi on
sprit zt</w>
soft ball</w>
scho ß</w>
schla m
sa ys</w>
plasti k
pink farbenen</w>
pflan zen</w>
p il
orange farbener</w>
or che
ol ympi
offi cer</w>
mü ll
mirro r</w>
mikro phon</w>
leit et</w>
hr en</w>
h in</w>
ge gneri
ful ly</w>
fi c</w>
er te</w>
die ser</w>
clo se</w>
ci al</w>
c y</w>
bub bles</w>
b y
b ung</w>
arti st</w>
all s</w>
ad verti
vi deo
v a
sti c</w>
squ are</w>
sp en
si cher
se ment</w>
se a
schreib tisch</w>
schlit ten</w>
schir men</w>
sbe wachsen
rä der</w>
put zt</w>
musi k
mo to
m op
m at</w>
lk w</w>
le ans</w>
kra watte</w>
ja pan
hoo die</w>
gra sbewachsen
glei ch</w>
gi ant</w>
g ut</w>
g lück
fi xing</w>
e ssen
e k</w>
dunkelhäuti ger</w>
cele bra
c irc
bri ghtly</w>
bm x</w>
ballo ons</w>
ba d</w>
auf nah
z äh
z un
z iel
whe el</w>
vorder grund</w>
unters u
umbre l
umbrel las</w>
teena ge</w>
sw im</w>
stell ung</w>
st ir
spe e
sp run
schn au
schat ten</w>
sch we
sch lange</w>
sand alen</w>
s richter</w>
s at
repar iert</w>
re pa
ra in
pit cher</w>
mu d</w>
me er
lea ther</w>
le g</w>
kur z</w>
k ran
irgen d
in es</w>
hell häuti
hel ping</w>
gy m</w>
ger i
fore ground</w>
flug zeug</w>
festi val</w>
fa ces</w>
f un
en des</w>
do or
col lar</w>
chine si
brun ette</w>
back stein
at ten
amerikani sche</w>
al one</w>
zwe i
win d
vol len</w>
vol l</w>
verk äufer</w>
tro ck
sta dium</w>
sp er
sp ei
reit er</w>
po ster</w>
po dium</w>
n ers</w>
mu ster</w>
me at</w>
le gs</w>
l ung</w>
kur zer</w>
k ten</w>
in nen
hän gen</w>
head phones</w>
gekleide tes</w>
gegen einander</w>
gan z</w>
füll ten</w>
farben e</w>
fahr rädern</w>
fahr radfahrer</w>
enjo y</w>
electri c</w>
e ys</w>
dau gh
dan cers</w>
cow boy
ch ur
c en
be w
b än
b rä
b is</w>
a sleep</w>
we ars</w>
wa shing</w>
vol l
vi ce</w>
verk aufen</w>
to ys</w>
th o
t ter
swin gs</w>
sto ff
stei gen</w>
st op
sp ani
ski ing</w>
skateboar d
skat er</w>
sit z</w>
schü ssel</w>
schü ler</w>
schied srichter</w>
sand als</w>
reit en</w>
ra dre
pi er
photograp her</w>
pfer den</w>
pa ssing</w>
offi cers</w>
offi ce</w>
n ati
ma kes</w>
ma ke
lächeln de</w>
lo ch</w>
le t</w>
l er
jeman dem</w>
ho od</w>
hal s
hal le</w>
gro c
go al</w>
g a</w>
foot ballspieler</w>
fall ing</w>
f ör
einkauf swagen</w>
e se</w>
e s
d ro
ck er</w>
c a</w>
bow ling
bl ü
bei ge</w>
bede ckt</w>
balanci ert</w>
b at</w>
asiati sches</w>
asi at
am ong</w>
win kt</w>
weibli che</w>
war d</w>
v ö
tz t</w>
tra f
ti ert</w>
te a
ta x
swi m
sit i
sin ger</w>
po siti
per for
perfor man
p ä
ne u
n ä
n ung</w>
musi cal</w>
multi colored</w>
mal es</w>
la ssen</w>
kü sst</w>
kre is</w>
kor de
ko mp
k amer
j on
hö he</w>
ho u
hi king</w>
hel d</w>
hea ds</w>
geschä ft
gegen über</w>
fäl lt</w>
fri end</w>
fin i
fa bri
f é</w>
f ern</w>
er de</w>
e e</w>
door way</w>
dir ty</w>
clo th</w>
chur ch</w>
cano e</w>
bare foot</w>
band an
badeho se</w>
b es</w>
ak korde
ac cor
wü r
w ander
traf fic</w>
thro ws</w>
t rei
t in
surf brett</w>
spie gel</w>
schul ter</w>
schla g</w>
sc ulpt
s ern</w>
rea ching</w>
profe ssion
pi cking</w>
performan ce</w>
p rä
orange farbenem</w>
op en
o w</w>
n at
mobil telefon</w>
mo ve</w>
ma gaz
lea sh</w>
l one</w>
klassen zimmer</w>
k et
in clu
hin der
hell brauner</w>
he ben</w>
hals band</w>
h ere</w>
gr in
g s
g ie
g em</w>
fels wand</w>
en ter
ele k
dra wing</w>
de mon
che f</w>
ca fé</w>
c ri
be kleidung</w>
b äl
accor dion</w>
äh n
wur f</w>
v el</w>
unbefesti gten</w>
te ppi
tan z</w>
t a</w>
su per
stru k
st eine</w>
shal low</w>
schmut zi
schauf en
schauf el</w>
sal on</w>
s ent
rela xing</w>
rea d</w>
re d
r eini
over alls</w>
over all</w>
ober teilen</w>
o u
n ie
mi d</w>
mem bers</w>
lo cks</w>
li ch
l un
ki ck</w>
kapu zen
kan u</w>
kaja k</w>
je an
hoch zeit
hil fe</w>
hand stand</w>
gra u</w>
g lä
fol lo
flei sch</w>
er in
e ar
dig ging</w>
de ep</w>
daugh ter</w>
d ol
d ert</w>
bä ume</w>
bo w</w>
beleb te</w>
bel ow</w>
b einen</w>
at ta
at or</w>
zei gen</w>
up side</w>
um p
ulpt ur</w>
tur n</w>
su spen
stei gt</w>
st au
sport ler</w>
sle d</w>
sicher heit
si cht</w>
shov el</w>
sho o
scha ften</w>
sc en
s eines</w>
ru hi
re det</w>
par t</w>
pa sses</w>
p fo
mu se
mo ving</w>
micro scope</w>
mat e</w>
leuchten d</w>
lebensmitt el
la un
k il
k eit
jug g
jon gli
j am
hug ging</w>
gu cken</w>
gi ves</w>
gar den</w>
fi g
f ting</w>
dur chs</w>
dre ad
da vor</w>
ch o
cat ching</w>
cat ches</w>
c at</w>
bi cyclist</w>
be wer
b ein</w>
aus sieht</w>
aufnah me</w>
at op</w>
öff net</w>
wor fen</w>
we d</w>
verschie denen</w>
u ch</w>
ti g</w>
tan z
t eln</w>
swee ping</w>
sta dion</w>
sprin g
spiel erin</w>
spa ß</w>
sp rü
slee ps</w>
sho ws</w>
sel f</w>
schnau ze</w>
schlau ch</w>
rest ing</w>
renn strecke</w>
ra il
prep are</w>
pa ved</w>
ol s</w>
make up</w>
let t</w>
lea ping</w>
last erten</w>
la b</w>
kü ssen</w>
kran ken
jün g
i ma
hun den</w>
ho t
her r
haus es</w>
gu e</w>
gesch lo
gepf lasterten</w>
ge sä
g ate</w>
fu n</w>
fr ü
fli es</w>
ffe l</w>
dru m</w>
dread locks</w>
clim b</w>
c ut</w>
bl y</w>
app ro
a i
x i
wett kampf</w>
war ds</w>
trun ks</w>
to chter</w>
the se</w>
te et
teet h</w>
tank top</w>
t eller</w>
stü cke</w>
stell en</w>
steh ende</w>
st ers</w>
spla shing</w>
skat es</w>
seifen blasen</w>
sculpt ure</w>
schul tern</w>
sca ff
sand wi
rug by</w>
rin gen</w>
pul l
pu ck</w>
pre sen
pon d</w>
pi zz
photograp h</w>
pe de
pede stri
par kt</w>
p en
männ licher</w>
muse um</w>
mikro skop</w>
m men
lo ts</w>
lila farbenen</w>
last wagen</w>
köpfi ger</w>
kop ft
ka i</w>
k ey</w>
individu als</w>
in spe
in fan
ho ut</w>
grasbewachsen en</w>
gol den</w>
gele gt</w>
for mal</w>
fi sch
farbenfro hen</w>
f ur
e g
do ors</w>
des ert</w>
convers ing</w>
col d</w>
co ats</w>
boo ks</w>
bo un
bo t
be l</w>
b ran
asiati sch</w>
ü r
ü ben</w>
ö h
wrest ling</w>
violet ten</w>
ver sch
under ne
underne ath</w>
ti gt</w>
tele scope</w>
t ire</w>
studen t</w>
spiel feld</w>
sil hou
sho e</w>
sent ation</w>
schö ne</w>
sch mu
s y
s em</w>
ro und</w>
ri ed</w>
re st</w>
pp t</w>
poin ts</w>
plan ts</w>
pi c
person en
ni val</w>
n u
n a</w>
lo a
le gen</w>
la ch
kü ste</w>
kreu z
ko cht</w>
kli ppe</w>
kir che</w>
kat ze</w>
k auft</w>
jog ging</w>
ja hr
ir d</w>
ho w</w>
h ur
gu n</w>
gri ma
gesch en
ge bo
fußgän ger
fußball spiel</w>
freun de</w>
fil m
er n
ein zel
eh r</w>
custo mers</w>
clo sed</w>
ch ern</w>
car nival</w>
c it
bri llen</w>
bla tt</w>
bewe g
bal con
and a</w>
akkorde on</w>
wit hout</w>
wat ers</w>
vi er
unter wegs</w>
them sel
themsel ves</w>
tei ch</w>
ta fel</w>
sz ene</w>
stu ff
strei ch
shoul ders</w>
schauk elt</w>
sca pe</w>
ru m</w>
proje ct</w>
pi pe</w>
ori ent
orient ali
op posing</w>
n ur</w>
moto cross</w>
mark t
ma chin
lo cal</w>
ku gel</w>
keit en</w>
k arren</w>
inclu ding</w>
hi ker</w>
her unter
hell en</w>
grau er</w>
gesä um
gesch n
gegneri schen</w>
gegen stän
ga ge</w>
füll t</w>
freun den</w>
fah ren
f s</w>
ele ss</w>
e i</w>
e at</w>
din ner</w>
dan ces</w>
cur ly</w>
cheerlea ders</w>
cen ter</w>
can e</w>
bu ll
bild schirm</w>
bedi ent</w>
be malt</w>
ausseh ende</w>
at es</w>
am p
ö pfen</w>
ärmel lo
y ed</w>
wä sche</w>
woo ded</w>
wett bewer
wei se</w>
verk ehr
um armen</w>
tramp oline</w>
tramp olin</w>
to mat
the ke</w>
ta ken</w>
sty le</w>
stra w</w>
steh enden</w>
sper r
sk in
si eben</w>
se at</w>
schwimm brille</w>
schutz helmen</w>
schnei den</w>
run ners</w>
roll ers
ri chtet</w>
re tt
re g
ra cket</w>
pul led</w>
produ ce</w>
pick ni
pi t</w>
pi an
park bank</w>
open ing</w>
o ds</w>
ne ss</w>
mu ral</w>
mop ed</w>
mitt el
mat ching</w>
mann schaften</w>
ma hl
lo un
lang em</w>
l auf</w>
kopfhör er</w>
kha ki</w>
k ehr
jo ckey</w>
jean s
it ten</w>
instrumen ten</w>
instrumen te</w>
infan t</w>
hol t</w>
hi gh
hal t
gol f
gei ge</w>
ga sse</w>
g n</w>
flag gen</w>
fi ght</w>
farbi gen</w>
entspan nt</w>
en tal</w>
dri ver</w>
do wn
di gen</w>
da mit</w>
d on</w>
cross walk</w>
con tain
ck igen</w>
circ le</w>
c rying</w>
but ton</w>
brin gt</w>
boot h</w>
ben en</w>
beleu chteten</w>
ball erin
b arbe
auf ger
an ce</w>
al ie</w>
we a
ver wendet</w>
ver gn
vergn ü
v ely</w>
tän zer</w>
tre ppen
tra sh</w>
teena gers</w>
sur face</w>
su cht</w>
stü r
stuff ed</w>
st il
ski ern</w>
sk ulptur</w>
se wing</w>
schlam m</w>
ra ft</w>
pic nic</w>
perform er</w>
part ment</w>
obje kt</w>
no t</w>
no se</w>
min i
met all</w>
mat te</w>
m es</w>
m a</w>
lun ch</w>
li ft</w>
kne e</w>
kha ki
k rei
jongli ert</w>
in fla
i c</w>
hü pft</w>
händ ler</w>
häl ter</w>
hun de
h äu
h it
h all
gymna st</w>
geschä f
ge mä
foot ball
fire figh
er ter</w>
er ing</w>
entlan g
ent fer
el f</w>
e ss
der by</w>
d or
d dy</w>
ct ed</w>
cover ing</w>
bi cyclists</w>
ber ge</w>
be cher</w>
bal k
attemp ts</w>
athle te</w>
zeu gen</w>
z ä
ver anda</w>
un s</w>
ti sche</w>
th ird</w>
tax i</w>
stat t</w>
stam m</w>
st off</w>
slo pe</w>
sk is</w>
sitz ende</w>
schwimm er</w>
schie ßt</w>
sch lei
sc al
sand y</w>
sa w</w>
ru ht</w>
rollerbla des</w>
ri er</w>
repar ieren</w>
re chts</w>
ra sse</w>
pu shes</w>
proje kt</w>
pedestri ans</w>
pea ce</w>
par a
p l
ori ental</w>
or d
on ed</w>
o on</w>
ne ck</w>
n er
mo ment</w>
mi gen</w>
m self</w>
lächeln der</w>
lin ks</w>
lei cht</w>
la ys</w>
kan er</w>
ka ffee</w>
iti g</w>
il en</w>
i schen</w>
i ro
hör en</w>
hi mself</w>
hi kers</w>
hel p</w>
grill t</w>
go es</w>
gla s
gesch ir
gen en</w>
ge st
ge ben</w>
feld weg</w>
fah nen</w>
ein gang</w>
ei sho
e ven
dunkl er</w>
dan cer</w>
co w</w>
cheerlea der</w>
cha ses</w>
bru sh</w>
brea k
box es</w>
bot to
bo gen</w>
blä st</w>
blo use</w>
bil der</w>
be ver
bar fuß</w>
balcon y</w>
b eln</w>
b auen</w>
auf tritt</w>
at tra
a st</w>
a gi
wü ste</w>
wer bung</w>
wand ert</w>
ver folgt</w>
ut s</w>
tu b</w>
tri e
ti c</w>
tau cht</w>
t ops</w>
sän ger</w>
stro h
sti ft</w>
ste ckt</w>
stair case</w>
spring brunnen</w>
sprin kl
spea ks</w>
shoo ting</w>
se ven</w>
schütt elt</w>
sc i
s ü
put s</w>
pul ls</w>
pol o</w>
pian o</w>
per i
p ri
p ort</w>
na se</w>
mä n
mit g
mitg lie
mahl zeit</w>
lon don</w>
lo g</w>
kopft uch</w>
ko ch</w>
in ten
in door</w>
ho ckt</w>
her um
hell blauen</w>
hand tasche</w>
ha fen</w>
gra s
go alie</w>
geschlo ssenen</w>
gel d</w>
ge pä
gar age</w>
fotografi eren</w>
fi sh
fi gu
far be</w>
f ly</w>
ex cit
em on
e th
dunkelhäuti ge</w>
de vice</w>
da ch
cowboy hut</w>
cle ar</w>
bo r</w>
berü hrt</w>
ben t</w>
be kommt</w>
bar en</w>
bal ken</w>
ba g
b le
ausseh ender</w>
au ßen
au ch</w>
asi ate</w>
2 0
über füllten</w>
wil d
wettbewer b</w>
wet suit</w>
w än
ve ment</w>
trä ger
ter rasse</w>
teppi ch</w>
tennis spieler</w>
te ch
swi ms</w>
str and
skateboar ds</w>
si ch
sha king</w>
schmu ck</w>
saxoph one</w>
sandwi ch</w>
reini gt</w>
positi on</w>
po t</w>
personen gruppe</w>
p et</w>
o c
ni ce</w>
nati ve</w>
män teln</w>
mo bi
mar ching</w>
m ei
m bi
lin ken</w>
l ers</w>
ka hl
k tor</w>
k te</w>
k ol
it tel</w>
ir ts</w>
hea vy</w>
groc ery</w>
gra ben</w>
gol d
glei ch
gitar ri
gentle men</w>
geh alten</w>
ge zogen</w>
ge sp
fei er</w>
fall s</w>
fa shi
fa ir</w>
f fel
even ing</w>
er tem</w>
er d
ent rum</w>
ent ri
enjo ys</w>
en ts</w>
dri ves</w>
de ut
comput er
ck ets</w>
c le</w>
brin gen</w>
bo ats</w>
blo cks</w>
be hälter</w>
ban ner</w>
b are</w>
ausge stre
at ting</w>
at e
am ü
a qu
1 2</w>
zeich net</w>
wra pped</w>
wo l
water fall</w>
w ns</w>
v il
ur r
um zug</w>
u fer
ty pe</w>
tran spor
tradition eller</w>
tra cks</w>
ti ge</w>
strei fen</w>
stre am</w>
sti k
ste ep</w>
st le</w>
st et</w>
st art</w>
spiel s</w>
spazi er
sp in
shi p</w>
she et</w>
sha ving</w>
se a</w>
schla f
schie ßen</w>
sal to</w>
sa iling</w>
ro bes</w>
rei gn</w>
re fer
pu ddle</w>
prote ctive</w>
por ch</w>
poli ce
po uring</w>
po st</w>
pink farbenem</w>
pfer de</w>
p fü
p an</w>
o d
mü ll</w>
mu sta
mo ves</w>
mo di
mal en</w>
leder jacke</w>
le hr
le dge</w>
laun dry</w>
la den
ko ff
ki ssen</w>
ki cks</w>
kaya k</w>
je an</w>
j o</w>
i z
hü b
hin ab</w>
her aus</w>
hea ded</w>
han gs</w>
ha w
gr ö
ger in</w>
gelände motorrad</w>
gar b</w>
g keiten</w>
fo reign</w>
fin gers</w>
fel sigen</w>
fahr räder</w>
f te</w>
eh nt</w>
e ar</w>
die sem</w>
de ckt</w>
colle ge</w>
clou dy</w>
ck elt</w>
ch ar
ch al
c er
bir ds</w>
be schä
asiat in</w>
asi aten</w>
appro a
an zu
amü si
a cti
zäh ne</w>
zuschau er
wä scht</w>
winter kleidung</w>
win e</w>
verk ehr</w>
ver s</w>
untersu cht</w>
ug gage</w>
tü te</w>
t ur</w>
str ing</w>
st ens</w>
sprun g
soldi ers</w>
sk irts</w>
shov eling</w>
se gel
schn ell</w>
s la
s ale</w>
ru b
rothaari ge</w>
rea ches</w>
rad fahr
qu e</w>
qu ar
prü ft</w>
pol es</w>
po site</w>
pla k
pfü tze</w>
pf an
pal m</w>
padd ling</w>
p ut</w>
p el
or y</w>
op ren
op posite</w>
on g
ne opren
ne i
nach dem</w>
na ssen</w>
mo und</w>
milit ä
m pe
ll y</w>
la pt
l uggage</w>
ki ss</w>
ker l</w>
kar te</w>
kan n</w>
kampf sport</w>
k el</w>
k al
hell braunen</w>
gr ä
gie ßt</w>
gel d
g on</w>
g leitet</w>
fr öh
f ir
ey e</w>
dru ck</w>
die ses</w>
den im</w>
de fen
cor n</w>
contain er</w>
comp le
col ors</w>
che cking</w>
cha se</w>
c ue</w>
brü net
brea d</w>
boar ds</w>
blät ter</w>
bla s
back yard</w>
ba ch</w>
b st</w>
b a</w>
auf blas
atta ched</w>
air plane</w>
ü bt</w>
zun ge</w>
zeu ge</w>
yo u</w>
wur de</w>
wor k
windo ws</w>
wil l</w>
wheel chair</w>
wer ed</w>
weit ere</w>
wan ne</w>
ut a
ur en</w>
u ps</w>
touri sten</w>
ton gue</w>
to ols</w>
tar n
t ö
sä cken</w>
sta pel</w>
soldi er</w>
skateboard fahrer</w>
sk y
sitz ender</w>
schla fen</w>
schla fen
sch ot
sch le
scaff ol
s wor
rec ei
re cor
pull i</w>
pp y</w>
pickni ck
pfo sten</w>
pass anten</w>
padd elt</w>
pa vement</w>
pa jam
pa ck
ou fla
oufla ge</w>
op pon
n ot
mon it
m ing</w>
m c
li ert</w>
le ge
lau gh</w>
la ster
kur z
kur ve</w>
kleide te</w>
ki ckt</w>
jum p
jers eys</w>
it en
infla table</w>
ima ge</w>
hö l
hor n</w>
hockey spieler</w>
hal s</w>
gemä l
fußgänger über
fra me</w>
form ation</w>
ff e</w>
fen ced</w>
f light</w>
ex peri
em er
don al
di s
cur b</w>
ct ory</w>
con es</w>
col or</w>
co ach</w>
cle an</w>
cam ouflage</w>
bun te</w>
bu llen</w>
braun es</w>
bi kers</w>
bi et
bet on</w>
bei einander</w>
beg in
bar fü
ballerin a</w>
balk on</w>
balan cing</w>
ba thro
ar row</w>
all er</w>
all ein</w>
a mi
a ges</w>
z ing</w>
wär ts</w>
war m</w>
wal ls</w>
voll führt</w>
vie l</w>
uti g
utig am</w>
unter schied
ty ard</w>
tro pi
tra ctor</w>
ter ed</w>
tele skop</w>
te stelle</w>
te e</w>
swim suit</w>
sum mer</w>
su pp
sto ol</w>
ste p</w>
ssi on</w>
spra y</w>
skin ned</w>
silhou ette</w>
sha do
sh ade</w>
sel l</w>
se es</w>
schw en
san ta</w>
s ar
roll stuhl</w>
ri ders</w>
ri bb
rasi ert</w>
rail road</w>
radre nnen</w>
r it
profession al</w>
plan t</w>
pizz a</w>
p op
o b</w>
musici an</w>
motor cycles</w>
mobi le</w>
mer k
mau l
mar ried</w>
magaz ine</w>
luftball ons</w>
li ving</w>
li ve</w>
laugh s</w>
lapt ops</w>
konz entri
koff er</w>
kla t
k no
jugg ling</w>
in en</w>
höl zer
ho tel</w>
hel fen</w>
happ ily</w>
h y
grä bt</w>
geträn ke</w>
ge zeigt</w>
ge we
g um
fußgän ger</w>
fri sch</w>
fre sh</w>
flo ral</w>
flo ps</w>
flo ating</w>
fabri c</w>
er er</w>
e scal
e d
e ats</w>
dre i
dra h
di scu
cti ons</w>
cow boys</w>
cour tyard</w>
co me</w>
clo se
ch an
c amer
bür o</w>
bub ble</w>
bu ying</w>
brünet te</w>
brä utigam</w>
botto m</w>
blü m
bei ge
barfü ßi
ba u</w>
b ati
amp ;</w>
amerikani schen</w>
a ku
& amp;</w>
z a</w>
wi scht</w>
we l</w>
wasser fall</w>
wa r</w>
w e</w>
vor d
verk auf
tätowi er
turn halle</w>
tu be</w>
tro mmel</w>
tra v
tou ching</w>
the ater</w>
tex as</w>
ta il</w>
sä ge</w>
swe sten</w>
suspen ded</w>
sur f</w>
stret ched</w>
straßen künstler</w>
st ol
st and
spit ze</w>
sp ot
sp on
so cks</w>
sna ck</w>
sk il
sitz enden</w>
si zed</w>
sho wn</w>
ser vi
schä fer
schu h
schrei t</w>
schn urr
sch weiß
scaffol ding</w>
sc ra
sa men</w>
run den</w>
rin gs</w>
rie si
rett ung
restauran ts</w>
poli zei
pla tt
pfer de
pf e</w>
pajam as</w>
pa ir</w>
neopren anzug</w>
ne ck
na p</w>
multi ple</w>
mm ert</w>
mi x
men ts</w>
mc donal
mark et
market place</w>
mal s</w>
m o</w>
lebensm ittel</w>
la ger
kö nnen</w>
ku h</w>
kon struk
kl ar
ki sten</w>
kehr t</w>
kan te</w>
ing s
i ch</w>
hur dle</w>
hinter her</w>
hin aus</w>
hellhäuti ger</w>
hei ra
hand tuch</w>
h le</w>
gu ard</w>
gru ppen</w>
gro om</w>
gol denen</w>
go ods</w>
geschir r</w>
gar ba
garba ge</w>
g ür
fi schen</w>
fe e
farben es</w>
f lan
f au
eu ro
eri al</w>
ent ly</w>
en th
eit her</w>
dr it
demon stra
dar unter</w>
d lichen</w>
d it
cou stic</w>
close up</w>
ck ter</w>
cheer ing</w>
carri age</w>
ca su
bur g
bu cking</w>
bi t</w>
bewe gt</w>
benut zen</w>
be sen</w>
be am
baum stamm</w>
barbe cue</w>
bar re
bandan na</w>
ban an
ball ons</w>
back wards</w>
ba m
arbeit skleidung</w>
appe ar</w>
app le</w>
angel t</w>
ab zu
a coustic</w>
ärmello sen</w>
zä unten</w>
zo gen
zi ert</w>
zeug s</w>
za hn
y ho
wel ding</w>
wa ys</w>
wa ke
vorbei gehen</w>
ver kleidet</w>
under water</w>
um her</w>
tro mm
train ing</w>
to wel</w>
ti sch
th um
th s</w>
tennis schläger</w>
tech ni
ta ge
studen ten</w>
sto ve</w>
stir n
st ed</w>
so mmer
slee ved</w>
she ep</w>
ser ving</w>
sel t
sch wer
s äu
ro ut
ri chten</w>
re chten</w>
rai sed</w>
ra sen
quar ter
platt form</w>
pla za</w>
pi ge
par ach
pain ts</w>
p ating</w>
or g
ob sta
ob st
o ed</w>
nah aufnahme</w>
musi kin
musikin stru
mon ey</w>
mo st</w>
mo m</w>
mitglie der</w>
mit tag</w>
men t
lin e
lau b</w>
land scape</w>
la cro
lacro sse</w>
l ern</w>
kreuz ung</w>
konzentri ert</w>
konstruk tion</w>
ko chen</w>
kne els</w>
kapuzen pulli</w>
jun gs</w>
japan ese</w>
ja gen</w>
it ä
it er</w>
in vol
in i
hü tte</w>
hü r
hoo ded</w>
he els</w>
ha y</w>
go od</w>
glück lich</w>
gg y</w>
gesäum ten</w>
geschä fts</w>
gesch min
ger man</w>
gemäl de</w>
geb au
g as</w>
fei ern</w>
f al
ex er
essen s
escal ator</w>
eri es</w>
entfer nt</w>
en g
ell ing</w>
e ars</w>
dru mmer</w>
dr ü
dire ction</w>
din ing</w>
di sk
cri cket</w>
cre w</w>
co a
clim ber</w>
ck ey
chinesi schen</w>
cha in</w>
ch op
ch ers</w>
cau ght</w>
cau c
cand y</w>
c l
braun haarige</w>
blon dem</w>
bl ing</w>
ber ges</w>
bel a
beg uta
bau t</w>
backpa cks</w>
ba ss</w>
b on
ani mals</w>
amerikani scher</w>
all eine</w>
air port</w>
adverti sement</w>
a do
a cht</w>
wohn zimmer</w>
weihnachts baum</w>
wei t</w>
wald gebiet</w>
wa gen
volley ball
vehic les</w>
us sion</w>
u sement</w>
tro mpe
tro l
tre ffen</w>
train iert</w>
touri st</w>
top f</w>
thro wn</w>
th ings</w>
tea cher</w>
ta ils</w>
sy n
str a</w>
sto re
star k</w>
stadt straße</w>
st y</w>
st ones</w>
ss i</w>
skate park</w>
sk ul
sha ped</w>
setz en</w>
se ts</w>
se ems</w>
scu ba</w>
schw an
schnee bedeck
schil dern</w>
sch litt
rö cken</w>
roll treppe</w>
ro n
refer ee</w>
prin t</w>
pp er</w>
pol ka</w>
pi ra
partici pating</w>
p y
orche stra</w>
oper ating</w>
offen em</w>
obsta cle</w>
ni ght
neck la
ne ten</w>
ne on</w>
mü tzen</w>
mu zz
motor rädern</w>
mo del</w>
milit är
me xi
mar sch
lächeln des</w>
luftball on</w>
lin es</w>
leh nen</w>
lege stelle</w>
kü chen
kit tel</w>
kar ate
k le
k alten</w>
jeman den</w>
individu al</w>
indi sche</w>
hor se
haw k</w>
hal t</w>
grill ing</w>
gre yho
gra vel</w>
glä sern</w>
geschäf tigen</w>
gesch la
gegenstän de</w>
ge worfen</w>
ge wand</w>
ge blüm
g al
fre und</w>
fotogra f</w>
flie gen</w>
fl ö
fish er
fir st</w>
figu r</w>
ff y</w>
f it
exam ining</w>
en ten</w>
elek tro
ele ph
eisho ckey
ein s</w>
e f
di sc
decora ted</w>
de sig
d y
cker ed</w>
che ckered</w>
ch ens</w>
cauc asian</w>
c one</w>
bäl len</w>
bru shing</w>
box er</w>
beschä f
ben ding</w>
befesti gt</w>
be ut
be su
bahn steig</w>
athle tic</w>
ar ds</w>
am usement</w>
afrikani sche</w>
aben d</w>
a ssi
20 12</w>
ö lk
ö hn
za hl
yo ga</w>
wän den</w>
wi de</w>
werk zeug</w>
wein t</w>
wass ers
wand bild</w>
wa sh
wa gon</w>
vi sion</w>
verk auf</w>
u si
tur ning</w>
tter t</w>
träger hemd</w>
tra ktor</w>
tr au
touri sts</w>
tor hü
tie f</w>
ti eren</w>
tatto os</w>
t z</w>
t um
su it
streich elt</w>
sti cking</w>
stein mauer</w>
steh end</w>
ste ilen</w>
spiel ern</w>
spei sen</w>
sonnen brillen</w>
snowboar ding</w>
silber nen</w>
shal testelle</w>
sh aring</w>
se iten</w>
schäfer hund</w>
schn itt</w>
schauf elt</w>
sch lu
s sig
ro wing</w>
ro pes</w>
rest s</w>
rei fen
rei chen</w>
ra st</w>
ra cer</w>
ra ce
pun k
prote st</w>
pre sentation</w>
practi ce</w>
pos si
po d</w>
plak at</w>
pit ch</w>
photograph s</w>
passen gers</w>
pa pier
p är
p tion</w>
p lo
oppon ent</w>
on ly</w>
o ze
näh ert</w>
no ti
nei gh
mu ddy</w>
mountain bike</w>
mo tor</w>
mo ti
mit arbeiter</w>
ma p</w>
m ly</w>
m ern</w>
li qu
li gi
le gg
kunst stücke</w>
komp lett</w>
kla pp
ki ste</w>
kahl köpfiger</w>
jun gle</w>
jugend liche</w>
je wel
irc ut</w>
il ity</w>
ih res</w>
i ght</w>
hölzer nen</w>
hän ge
hr e</w>
hor iz
ho cke</w>
hit ting</w>
hinder nis</w>
har ness</w>
halt ung</w>
hall way</w>
hal f</w>
ha ircut</w>
gla tz
gewi ckelt</w>
geschen k</w>
ger er</w>
gen der</w>
gen de</w>
gel ehnt</w>
ge öff
gar ten
fü ßen</w>
frei zeit
fre il
fo to
fisch er
firefigh ters</w>
fee ding</w>
f ree</w>
f an</w>
exer ci
en ga
e ben
dunkel haarige</w>
do min
de sc
de cken</w>
dau men</w>
d j</w>
cyc ling</w>
crou ches</w>
compe te</w>
col a</w>
che st</w>
cell o</w>
bü cher</w>
bän ken</w>
bu shaltestelle</w>
bro t</w>
boar d
bo xing</w>
beweg ung</w>
bew ölk
ben ches</w>
be mal
be gei
baseball kappe</w>
b lei
attemp t</w>
at v</w>
ange zogen</w>
ange zogen
al so</w>
afro ameri
ad ju
ac ting</w>
a gen</w>
a di
zuschauer menge</w>
wunder schönen</w>
wir e</w>
wer fer</w>
wei ght</w>
vor n</w>
vie wing</w>
us ly</w>
um hang</w>
tän z
tur ns</w>
to ol</w>
to i
ti le</w>
th day</w>
teil t</w>
stö cken</w>
sti er</w>
sta p
st ati
ss eln</w>
spor ting</w>
spee ch</w>
sold at</w>
sin k</w>
si e
schu le</w>
schu b
schnurr bart</w>
schn it
schmutzi gen</w>
schi ff</w>
sch met
sch lie
sch einen</w>
sch e
samm elt</w>
s ong</w>
rollers kat
ro hr</w>
ren ch</w>
re ligi
race track</w>
quarter back</w>
pär chen</w>
pul l</w>
pu ppe</w>
police man</w>
pol o
pi ste</w>
pati o</w>
pat ro
pass agi
p r
on i
o hr
na vy</w>
n ur
musta che</w>
motor cyclist</w>
menschen gruppe</w>
mat erial</w>
machin ery</w>
loa ding</w>
legg ings</w>
le tz
lau b
lang haariger</w>
la ster</w>
la ss
la bor</w>
l um
kopfhör ern</w>
kletter er</w>
kla vier</w>
kamer a
k ie
jüng eren</w>
jump suit</w>
jog gt</w>
jog gen</w>
in line
il er</w>
hür de</w>
hy dr
hug s</w>
ho ops</w>
hin unter
hil l
hel l</w>
hei ßen</w>
hei ß
head scarf</w>
haari ges</w>
h all</w>
guit ars</w>
gro ups</w>
graffit is</w>
gewä ss
gew öhn
geträn ken</w>
gesi chts
gerä ten</w>
gepä ck</w>
gelän de</w>
gel t</w>
gel a
ge parkt</w>
ga ssi</w>
g ur
g te</w>
fru its</w>
fr an
fo c
fig ure</w>
far m</w>
en tran
einkauf sz
ei ght</w>
ei g
di sh</w>
cra ft</w>
comp ani
co mm
cle ans</w>
chin a</w>
car pet</w>
ca de</w>
bu t</w>
bru st</w>
blät tern</w>
blon d
bir thday</w>
beut el</w>
be a
bathro om</w>
bar s</w>
ban jo</w>
balan ce</w>
b ör
b st
b renn
ausgestre ckten</w>
auf merk
auf führung</w>
a head</w>
a ction</w>
älter es</w>
zie l</w>
za hl</w>
y er</w>
whe els</w>
war n
wa i
vorbei fährt</w>
vor richtung</w>
violet tem</w>
ver w
ven d
vend ors</w>
us a</w>
ty pen</w>
tw agen</w>
tur ban</w>
tru mp
trump et</w>
tre ppen</w>
torhü ter</w>
tomat en</w>
ters e
terse ction</w>
ten ts</w>
tei g</w>
te tes</w>
tatto oed</w>
t em
syn ch
swimm er</w>
su r</w>
städ tische</w>
stu d
stret ching</w>
stop ped</w>
ste u
spr ing</w>
sport veranstaltung</w>
spa ce</w>
sp ü
smo ke</w>
sli des</w>
sho ot</w>
she ph
sheph er
sell s</w>
seil en</w>
se e
se cur
schutz brille</w>
schir m
schaufen ster
sch wa
sch em</w>
sand dü
rub ber</w>
ru dert</w>
rout ine</w>
rosa farbenem</w>
ro ugh</w>
ro ad
ribb on</w>
ri ck
re de</w>
radfahr ern</w>
ra h
ra ds</w>
possi bly</w>
pi lot</w>
pe tting</w>
partici pat
p a</w>
orche ster</w>
or n
obser ve</w>
näh maschine</w>
ni cker
nicker chen</w>
neu gebo
neugebo ren
neigh bor
neighbor hood</w>
ne on
na vi
n arrow</w>
mäd chens</w>
mor e</w>
mi erte</w>
mem ber</w>
medi cal</w>
marath on
mar t</w>
m i</w>
m all</w>
lo b
li ed</w>
lehr er</w>
lea ving</w>
lan e</w>
la y</w>
la ter
la te</w>
la mpe</w>
l d</w>
kunst werk</w>
kni en</w>
kla sse</w>
ker zen</w>
ke gel</w>
ke ep</w>
ka ffe
k y</w>
k r
k is</w>
jo hn</w>
je ep</w>
inter e
in tersection</w>
in doors</w>
horse back</w>
ho spit
hinter hof</w>
hill side</w>
her d</w>
hei t</w>
he art</w>
h ers
hers elf</w>
gymna sti
gum mi
grei fen</w>
gre at</w>
gitarri st</w>
gew än
geld bör
geb un
g ä
fü ße</w>
fü ttert</w>
fri se
flü ssig
flug hafen</w>
fla schen</w>
fl au
fi scher</w>
fe at
fan cy</w>
experi ment</w>
ex hi
eri e</w>
er kli
er ed</w>
entran ce</w>
elect ro
einzel ner</w>
ea stern</w>
dun e</w>
disc ussion</w>
dire kt</w>
di cht</w>
di a
der ing</w>
decora ti
de ck
d eln</w>
crou ching</w>
con tro
ch or</w>
cer emon
ce iling</w>
c ran
c ally</w>
bu y</w>
bu shes</w>
bowling bahn</w>
board walk</w>
blu e
bl ume</w>
bever age</w>
beschäf tigt</w>
ber n</w>
be am</w>
bau ch</w>
bat h</w>
bask ets</w>
baseball mütze</w>
bahn hof</w>
b in</w>
att le</w>
arm y</w>
an y</w>
an legestelle</w>
an lage</w>
an gel</w>
a partment</w>
a ber</w>
zeu ger</w>
yo uth</w>
x y
wi fe</w>
w ein</w>
vi si
vi l</w>
ver tei
ver heira
us ed</w>
uniform ed</w>
tür ki
tter y</w>
trompe te</w>
train ings
ten d</w>
ta b
t ut
sü ßi
swor d</w>
stroh hut</w>
stri pes</w>
stri ck
st ly</w>
st einigen</w>
st ar</w>
squ atting</w>
sport kleidung</w>
spie gel
so cken</w>
slee ve</w>
si cht
shepher d</w>
se ats</w>
schwimm bad</w>
schwa ch</w>
schlag zeuger</w>
sch na
sch min
sat z</w>
samm lung</w>
ruck säcken</w>
ro t
renn wagen</w>
rei che</w>
regen schirmen</w>
re kla
re cht</w>
r ute</w>
qu et</w>
pu ppy</w>
pla tz
pie ces</w>
pi pes</w>
pi ck</w>
pa ck</w>
p lü
out stretched</w>
orn ate</w>
org ani
op ing</w>
ol i
o hren</w>
ne ts</w>
mo stly</w>
mo hawk</w>
mit hilfe</w>
micro phones</w>
mi xing</w>
men te</w>
me tal
me sser</w>
me ch
mech ani
masch inen</w>
marsch iert</w>
mar oon</w>
mar in
lu sti
lo s</w>
lie genden</w>
lach end</w>
kü r
ko mmen
kn ie
ki e</w>
ket ten
kau t</w>
kari ertem</w>
kar ten</w>
k rä
k ette</w>
j en
it es</w>
i se</w>
häu sern</w>
hot dog</w>
hospit al</w>
ho h
hi stor
hel ps</w>
he u</w>
har mon
hand schuh</w>
hal b
ha wai
guit ar
guitar ist</w>
go t</w>
gi e</w>
gewäss ers</w>
gewi ch
gewe hr</w>
geschäft s
geschä ften</w>
geblüm ten</w>
fun ny</w>
freil u
fre m
fotogra fen</w>
fol ding</w>
flu ss
flu g</w>
flau schi
fini sh</w>
fin ger
fin det</w>
ff s</w>
feuerwehr männer</w>
fer ence</w>
fen ster
fen cing</w>
fa ctory</w>
excit ed</w>
et t</w>
el tern</w>
einkaufsz entrum</w>
einkauf sta
ein sam
ei sen
drah tz
din ge</w>
di shes</w>
den ti
de ad</w>
d ä
d st</w>
d board</w>
cour s</w>
con si
con ference</w>
con du
comput ers</w>
col um
clo wns</w>
cla y</w>
cho ir</w>
che fs</w>
cha in
celebra ting</w>
car dboard</w>
car d</w>
c ans</w>
bur ger</w>
bur g</w>
bu ckets</w>
bro w
brau t
bowling kugel</w>
bott les</w>
bor d
boo ten</w>
blo w</w>
berü hren</w>
bei ßt</w>
be arbeitet</w>
bat ter</w>
bar ri
back s</w>
ba th
b eine</w>
aus stellung</w>
aufblas baren</w>
auf zu
auf s</w>
at a</w>
ar ran
angel rute</w>
an ti
an hat</w>
amüsi eren</w>
afrikani scher</w>
ad mi
a ss
zu ge
zi eren</w>
zeit schrift</w>
wor ld</w>
wi ssen
wissen schaft
wheel ie</w>
wagen s</w>
wa hr
wa ffe</w>
vege table</w>
va cu
v eless</w>
und ert</w>
un ds</w>
tri bü
train er</w>
ti ere</w>
ti er
teena ger
ta ge</w>
t ons</w>
t ly</w>
t il
t ently</w>
stu fe</w>
stro ll</w>
str ü
store front</w>
star t
star es</w>
sta ck</w>
sta b</w>
st ur
spra ying</w>
spin ning</w>
spiel kleidung</w>
snowboar d
smo kes</w>
slee veless</w>
si mi
sen i
secur ity</w>
se itig</w>
schwen kt</w>
schweiß t</w>
schwan z</w>
scen ery</w>
saxoph on</w>
sand strand</w>
sa al</w>
s n
rä ch</w>
ru ral</w>
rin k</w>
riesi ge</w>
renn auto</w>
rei cht</w>
refle ctive</w>
rah men</w>
prote sti
pro bi
poin t</w>
plat te</w>
pin e</w>
picknick tisch</w>
pe e
pati ent</w>
pa ckt</w>
oth ek</w>
offen bar</w>
nä ch
n it
nit ure</w>
n ame</w>
mo u
mi scher</w>
mar schi
lo y
lo ween</w>
li br
libr ary</w>
lea ding</w>
le ot
l erin</w>
kör ben</w>
kö pfen</w>
kur s</w>
kun ft</w>
kti ve</w>
kop fü
kopfü ber</w>
kon fer
konfer en
kletter gerüst</w>
kleide ter</w>
ki ck
kar u
kamer as</w>
k rie
jüng ere</w>
jahr markt</w>
it em</w>
inspe cting</w>
in du
hü te</w>
hoch zeit</w>
hal loween</w>
ha ir
grin ding</w>
gri llen</w>
gri ff</w>
grau e</w>
gi ert</w>
gh ts</w>
gesp räch</w>
gelände motorradfahrer</w>
geh ende</w>
gegen seitig</w>
geb il
ge park
fur niture</w>
fre u
for d</w>
flüssig keit</w>
flü geln</w>
flo at</w>
fli pping</w>
fla chen</w>
fisher man</w>
fire truck</w>
feuerwehr mann</w>
feu ert</w>
fe gt</w>
farbi ge</w>
fahr geschäft</w>
fa hne</w>
f ft</w>
eth nic</w>
eng ine</w>
en te</w>
emp loy
em bra
elek tri
ele fan
el mo</w>
e ting</w>
e ten</w>
e ite</w>
e gt</w>
dunkel blauen</w>
du del
du ck</w>
dre ck</w>
dra chen</w>
do ctor</w>
di git
den k
dan eben</w>
d am
cut s</w>
ct ors</w>
com for
color ing</w>
co bb
ck i
ch tern</w>
ce ss</w>
cal f</w>
ca stle</w>
bäl le</w>
bro om</w>
bro n
br and
box en</w>
bow ls</w>
bor n</w>
blue jeans</w>
blo ws</w>
bla zer</w>
beige farbenen</w>
be stehende</w>
be ar</w>
ball on</w>
backstein gebäude</w>
b um
aus zu
ani e</w>
an g
al ter
acti v
aben dessen</w>
a sp
är m
zu g
z ten</w>
z one</w>
z enden</w>
xy lo
wir belt</w>
wett rennen</w>
wel pen</w>
we b
wat ers
wasser flasche</w>
wasch salon</w>
wand ern</w>
wa schen</w>
ver lassen</w>
uti eren</w>
ur t
urt sta
untersu chen</w>
un gewöhn
turn erin</w>
tur ned</w>
tt y</w>
tru cks</w>
trei bt</w>
train ieren</w>
ti mes</w>
ti ed</w>
tele vision</w>
ta in</w>
t tern</w>
t lichen</w>
sän gerin</w>
surroun ding</w>
stö cke</w>
stro m
straßen händler</w>
stor y</w>
stau b
star ting</w>
stan gen</w>
stair way</w>
st el
ss ell</w>
sprü h
spor twagen</w>
spe ed</w>
sp read</w>
sit ing</w>
si um</w>
si des</w>
scre am
schmet ter
schlau ch
schlaf anzug</w>
scha ch
sch rau
sanddü ne</w>
s ym
s le</w>
roll t</w>
roll s</w>
ro d</w>
rea ch</w>
rain y</w>
rai ses</w>
r einigen</w>
qu e
plat es</w>
plan scht</w>
pige ons</w>
pf lü
pe d
parti ally</w>
par ents</w>
pain t
padd eln</w>
p t</w>
over head</w>
oper ation</w>
op ol
od d</w>
obje cts</w>
o sau
num er
no ch</w>
night time</w>
ni er</w>
ne y</w>
ne a
na ked</w>
n es</w>
mö gli
motor bike</w>
mon opol
mo dern</w>
mo d
marschi eren</w>
ma ch</w>
m y</w>
m ul
li stens</w>
li fting</w>
let es</w>
la t
la mp</w>
la bor
l li
l ein
köpfi ge</w>
kö che</w>
ko ra
kil t</w>
kal b</w>
k ul
k ite</w>
k arre</w>
jun g
ju beln</w>
jo ck
jock eys</w>
jewel ry</w>
jeans jacke</w>
indu stri
in tently</w>
in line</w>
ho uses</w>
herunter ge
her ab</w>
hel me</w>
hal sk
gymna sium</w>
gu i
grö ß
grima sse</w>
glei sen</w>
gi p
geschäft skleidung</w>
gen cy</w>
geldbör se</w>
geh ö
geb urtsta
ge punk
g ung
g ner</w>
g ged</w>
g am
fußball feld</w>
frisbe e
frisbee scheibe</w>
freun d
freilu ft
fon tän
follo wing</w>
fol ded</w>
flö te</w>
flu ffy</w>
fi x</w>
fern seh
farbenfro her</w>
f än
ex pre
entspan nen</w>
en s
emer gency</w>
eleph ant</w>
dunkel haariger</w>
drü ckt</w>
drahtz aun</w>
down town</w>
do se</w>
discu ssing</w>
din osau
di mly</w>
de kora
de kor
cran e</w>
cra y
convers e</w>
co ol</w>
cla d</w>
che ck
chal k</w>
cat cher</w>
car ving</w>
car e
cand les</w>
ca pe</w>
c ru
c o</w>
c are</w>
bür ste</w>
bü ro
bun t</w>
bro ken</w>
bri ef
brand ung</w>
bo ul
bo dy
bl ö
bewölk ten</w>
ben e
beleu chtung</w>
beguta chtet</w>
be kommen</w>
be fahren
bb elt</w>
bau ern
barre l</w>
balan ces</w>
bal ding</w>
bade wanne</w>
b unter</w>
ati on
arbeit s
ar ch
approa ching</w>
app ar
an sammlung</w>
an hän
alt modi
ab sperr
a ct</w>
über prüft</w>
über gewich
ü bun
öff nung</w>
ziegel mauer</w>
zi erten</w>
zeich nung</w>
zahl reiche</w>
z öpfen</w>
x es</w>
wrest le</w>
win gs</w>
werk statt</w>
we g
waters ki
wald weg</w>
wal mart</w>
vö gel</w>
vor über</w>
vor ne</w>
vil lage</w>
viel leicht</w>
vi oline</w>
vi e</w>
versamm lung</w>
ver lässt</w>
ver kleidete</w>
uni cycle</w>
un t</w>
ul en</w>
u ment</w>
u f
tur ner</w>
tribü ne</w>
tra iler</w>
ti es</w>
th in</w>
ter rain</w>
tennis spielerin</w>
teil neh
teenager alter</w>
team mate</w>
tea ching</w>
te st</w>
tage ssen</w>
t le</w>
t ch</w>
sä ug
swimm ers</w>
su chen</w>
stir n</w>
sti l</w>
st arren</w>
ss ed</w>
sprinkl er</w>
spla tz</w>
spazier gang</w>
so a
sm aller</w>
shov els</w>
sha ved</w>
sha des</w>
sh el
schwar zwei
schub karre</w>
schot ter
schil der</w>
schie ben</w>
schein bar</w>
schaufen ster</w>
scha u</w>
sch r
run ter</w>
ruhi gen</w>
rug by
ru g</w>
ro deo
repa ir</w>
rela x</w>
refle kti
red headed</w>
rain bow</w>
rai sing</w>
put zen</w>
pu sh</w>
prote sting</w>
presen t</w>
por tra
pon y</w>
po ttery</w>
plü sch
pin ata</w>
pho tos</w>
pf laster
participat e</w>
para sailing</w>
pal men</w>
pa pi
pa pers</w>
p um
orange farbene</w>
oran ges</w>
or e</w>
ong st</w>
obser ving</w>
ob dach
obdach lo
o ms</w>
näh t</w>
numer ous</w>
no te
ni sse</w>
new born</w>
neckla ce</w>
na h</w>
müll ton
motor räder</w>
motor roller</w>
motor i
monopol y</w>
mon ument</w>
mo del
mit tagessen</w>
medi z
maul korb</w>
ma i
lö ffel</w>
län di
loun ging</w>
loun ge</w>
lo ws</w>
lo go</w>
liqu id</w>
le ar
lass o</w>
lang ärmel
kunst wer
kleid ungs
ke e
kapu ze</w>
kaffe e
in c
i en
i an</w>
hu g</w>
hochzeit s
ho sen
ho m
ho ben</w>
hin ein</w>
head band</w>
hea v
hau se</w>
hau be</w>
h ner</w>
h its</w>
h amm
greyho und</w>
gras fläche</w>
gr and
gli ed</w>
glei chen</w>
gewän dern</w>
geschn itt
gen o
gen d</w>
gebun den</w>
ge sti
ge füllt</w>
för migen</w>
fußgängerüber weg</w>
fri sur</w>
for ward</w>
follo ws</w>
flo wered</w>
fl ur</w>
fire man</w>
fest hält</w>
fern glas</w>
fel sen
fei ert</w>
fau len
far b
fall schirm</w>
fa ck
eri sch</w>
er leu
er innen</w>
enth usi
enga ged</w>
en gen</w>
electro nic</w>
eishockey spieler</w>
einge zäunten</w>
ein rad</w>
e sel</w>
dro p</w>
drit te</w>
dra g
do ugh</w>
disk utieren</w>
dire ctions</w>
di g</w>
da zu</w>
da y
d um
cu lar</w>
cro sses</w>
contro l</w>
con gre
co ca</w>
cl ut
car ry</w>
camer as</w>
cal led</w>
ca ps</w>
c ir
bü schen</w>
bü n
bü h
bü ckt</w>
bull do
bu ff
bran ch</w>
br auen</w>
br a</w>
bor ne</w>
blumen muster</w>
bl in
bil l
biet et</w>
bi king</w>
bi er
bew undert</w>
ber t</w>
bene ath</w>
bei sam
be spritzt</w>
be dru
baum es</w>
bat man</w>
baseball spiel</w>
bar ber</w>
ba by
b lea
aus geb
aqu ari
ange bo
an ge</w>
am ongst</w>
aku stik
afroameri kaner</w>
adverti sing</w>
ach ter
a h
&apos; t</w>
zusammen ge
zu bereitet</w>
ze itig</w>
wrest ler</w>
wil d</w>
wheel bar
wh il
whil st</w>
wea ving</w>
we bt</w>
wa ding</w>
vorbei geht</w>
vor über
verkauf s
ver sit
ver deckt</w>
us k</w>
up on</w>
uni versit
ul ars</w>
u hr</w>
tü ten</w>
tw ir
tur m</w>
trun k</w>
tromm eln</w>
trei ben</w>
tran sport
tra cht</w>
to wer</w>
tie f
the dra
teil weise</w>
te te</w>
te en</w>
te a</w>
tau cher</w>
tau ben</w>
tar get</w>
tack le</w>
t am
synch ro
stür zt</w>
stu res</w>
struk tur</w>
stra ight</w>
sto mach</w>
stirn band</w>
stil l</w>
steh ender</w>
ste el</w>
stat e</w>
st em</w>
sprü ht</w>
sprit zen</w>
spla shes</w>
sp ren
sp o
so on
snowboard fahrer</w>
sli ghtly</w>
ski ers</w>
si lly</w>
shop s</w>
sha kes</w>
sh ining</w>
sh ine</w>
sh are</w>
sel y</w>
se ssel</w>
sci ence</w>
schul kinder</w>
schrei ben</w>
schn ü
schmut z</w>
schir me</w>
schauk eln</w>
schauf eln</w>
sch lo
scar ves</w>
sc ul
sa il
s nea
ru bs</w>
rothaari ges</w>
rosa farbener</w>
rosa farbene</w>
ros aro
ro ws</w>
rin g
rettung swesten</w>
repa irs</w>
repa ir
renn ens</w>
reifen schaukel</w>
recei ving</w>
re gi
ran de</w>
ra fting</w>
ra ces</w>
r en</w>
py ra
prä sen
produ kte</w>
pre tty</w>
ppi es</w>
pon y
po st
pil low</w>
pi g
photograph ed</w>
pfa d
pfad fin
perform ers</w>
pe ering</w>
pat ri
passen ger</w>
passen den</w>
pa per
pa ddle</w>
of en</w>
oc ulars</w>
ober fläche</w>
o wn</w>
o ra
o es</w>
o dle</w>
näch sten</w>
nie dri
neugeboren es</w>
ne ue</w>
ne tze</w>
nat ure</w>
monit or</w>
mo der
mmer ung</w>
mm ed</w>
mit glied</w>
mi schen</w>
mi c</w>
marin e
machin es</w>
ma schen
län dlichen</w>
lob by</w>
lo ve</w>
lo k
lo ckigen</w>
lie fer
lich em</w>
li sten</w>
li gen</w>
lein wand</w>
lea ds</w>
le stone</w>
le op
land et</w>
ko ch
klei der</w>
klat scht</w>
klassen raum</w>
kin des</w>
ki mon
ki es</w>
khaki farbenen</w>
kha kis</w>
ke ts</w>
ke sen
karu ssell</w>
kar ton</w>
kar ten
kam el
ju belt</w>
jo b</w>
jen ga</w>
j et</w>
it e
iro kesen
inter vie
inter acting</w>
indi scher</w>
hom eless</w>
hol en</w>
hoch ge
hi er</w>
haari gen</w>
ha fen
gür tel</w>
gu ards</w>
grima ssen</w>
gr und
glo ve</w>
gleich zeitig</w>
glatz köpfiger</w>
gi ft</w>
gestrei ft
gestreift es</w>
gesti ku
gemü se
gehö ri
ge gner</w>
ge beugt</w>
gar den
g uns</w>
g le
ft ed</w>
fri e
fol gen</w>
fli ps</w>
fire men</w>
film t</w>
fig uren</w>
fahr zeugs</w>
fahr zeuge</w>
fahr rads</w>
fa ke</w>
f feln</w>
et ten</w>
er tes</w>
entlang geht</w>
enter tain
elektro ni
einsam er</w>
ea st</w>
e es</w>
drin nen</w>
don key</w>
demonstra tion</w>
dekora ti
de ss
da d</w>
d ges</w>
cra fts</w>
coo k</w>
con ven
comp let
col lie</w>
cobb lestone</w>
char ac
casu al</w>
car ds</w>
cam el</w>
cal m</w>
c ation</w>
bü cher
bän dern</w>
but ter
bu sses</w>
boo k
bo o</w>
bo hr
bo gen
bli othek</w>
bin oculars</w>
bill board</w>
bi bliothek</w>
bewe gen</w>
begin nt</w>
be tt
be kan
be anie</w>
bau arbeiten</w>
bandan a</w>
bal let
ausseh enden</w>
auf ga
au en
ath letes</w>
asiat innen</w>
arr ing</w>
ar cade</w>
ar a
aquari um</w>
ameri ca</w>
akustik gitarre</w>
air borne</w>
ai sle</w>
afro amerikanische</w>
admi ring</w>
achter bahn</w>
1 1</w>
zei ge</w>
ze ment</w>
z w
z ut
z es</w>
woo d
wo hl</w>
win d</w>
wheelbar row</w>
wel pe</w>
water way</w>
water front</w>
wasch becken</w>
wand t</w>
wan ge</w>
w en</w>
vor tra
vor bereitet</w>
vol k
vo gel
violet t</w>
vier tel</w>
video spiel</w>
verheira tetes</w>
ven ue</w>
v el
v ar
unter wäsche</w>
unbefesti gte</w>
un dy</w>
ulti mate</w>
ufer in</w>
tür en</w>
tänz erin</w>
tum n</w>
tt i</w>
tropi cal</w>
tr y
ti res</w>
thum bs</w>
ten ding</w>
tele phone</w>
ta ining</w>
ta gs
t v</w>
t ut</w>
t ter</w>
t ten</w>
sä ulen</w>
swe ste</w>
sur fen</w>
stü hle</w>
stän der</w>
stud ying</w>
stu ch</w>
strick mütze</w>
strei cht</w>
str au
sto le</w>
sti sch</w>
sti mm
stand ers</w>
st ea
ss or</w>
ss age</w>
ss a
spot ted</w>
spor th
spar k</w>
sp oon</w>
soft ball
so wie</w>
so da</w>
snea kers</w>
sk s</w>
sin o</w>
simi lar</w>
sh in
se mi</w>
se iten
scream ing</w>
schw ert</w>
schut z</w>
schu ss</w>
schn ur</w>
schi enen</w>
sbe mal
sbemal ung</w>
sax of
s ung</w>
s ni
ru hen</w>
rollers k
rick sha
ri k
ri cht
renn fahrer</w>
reg al</w>
reflekti er
re trie
rau ch</w>
r än
qu ad</w>
pul t</w>
prü fen</w>
pro men
promen ade</w>
pro fi
pra ying</w>
por trä
po tat
plastik tüte</w>
pla ces</w>
pi stole</w>
pflaster straße</w>
pflan ze</w>
per ü
papi ere</w>
padd les</w>
p tu
p les</w>
oze an</w>
over weight</w>
ori um</w>
or der</w>
olympi schen</w>
offi cial</w>
obser ves</w>
o ven</w>
o hr</w>
nam ent</w>
nam ens
müllton ne</w>
mu sli
meer es</w>
meer es
me ssy</w>
me eting</w>
mat es</w>
markt platz</w>
man che</w>
mal er</w>
m pf
m ati
lä uferin</w>
lo cken</w>
li ps</w>
li fted</w>
leu cht
ler nt</w>
leot ard</w>
lebensmittel geschäft</w>
lea f</w>
lea d</w>
le ckt</w>
lauf bahn</w>
lang haarige</w>
lan ding</w>
la mp
kä fi
kunstwer ke</w>
kunst stoff
kni t</w>
kne i
ketten säge</w>
ke ys</w>
kaya ks</w>
ka sten</w>
k tion</w>
k tem</w>
k na
k itt
k in</w>
jo gg
inline skates</w>
in spi
in form
i mbi
i f</w>
hü pfen</w>
hot dogs</w>
hock er</w>
ho benen</w>
hin durch</w>
her au
hand schuhe</w>
hal stuch</w>
ha m</w>
h art</w>
groc eries</w>
go s</w>
gestiku liert</w>
gesi cht
gesicht sbemalung</w>
gesch mü
gesch i
gepark ten</w>
gela ssen</w>
gel en
geh ender</w>
gebau t</w>
ge win
ge stures</w>
ge mu
ge macht</w>
ge füllten</w>
ge fä
g all
fän ger</w>
frü chte</w>
flo ß</w>
fl ute</w>
fin gern</w>
fil ling</w>
ffel t</w>
feuerwehr leute</w>
fe tti</w>
far mer</w>
fami li
fall schirm
fa ss</w>
exam ines</w>
enter ing</w>
ent fern
elefan ten</w>
ein zu
eg gs</w>
dü nn
dri ll</w>
dre h
dol l</w>
dit orium</w>
dir i
di ver</w>
der in</w>
de ten</w>
de signs</w>
de br
debr is</w>
d usk</w>
custo mer</w>
cu ps</w>
cu p
cra w
consi sting</w>
computer bildschirm</w>
comp any</w>
com es</w>
coa ster</w>
co ol
che er</w>
che cks</w>
che ck</w>
chain saw</w>
ceremon y</w>
car ts</w>
c lean
bün del</w>
büh nen
by standers</w>
burg undy</w>
buff et</w>
bu ch
brow sing</w>
bri cht</w>
bre tt
bra cht</w>
br iti
boo te</w>
bo u
bo ss</w>
blea chers</w>
bla se</w>
bil den</w>
bekan n
begei ster
bb ing</w>
basketball spiel</w>
barfüßi ge</w>
bar rier</w>
ba b
aufmerk sam</w>
au tumn</w>
au gen
au ditorium</w>
atten tion</w>
asi en</w>
ar zt</w>
an sicht</w>
an gen</w>
al tes</w>
aben ds</w>
a kti
a cro
1 0</w>
ö l
zurü ck
zo mbi
zie gel</w>
z au
wra p</w>
wo hner</w>
wi res</w>
wi r</w>
wer be
wei l</w>
water mel
wat et</w>
wasser mel
wass ers</w>
war t
war es</w>
wa ffel</w>
vor stellung</w>
visi ble</w>
vi siting</w>
vi ol
vertei di
verschne ite</w>
vergnü gung
vergnügung spark</w>
us h</w>
ur s</w>
un ord
ump ire</w>
tätowier ungen</w>
tätowier ung</w>
tw i
tut u</w>
tur nier</w>
tt ed</w>
try side</w>
trock en
treppen stufen</w>
trau ri
trainings anzug</w>
tradition ellen</w>
tra y</w>
tou ches</w>
tou ch</w>
to ur</w>
to ur
to ssing</w>
ti red</w>
ti g
ter rier</w>
ter ned</w>
ter min
tei le</w>
te al</w>
tau cher
tarn kleidung</w>
tack ling</w>
tab lett</w>
ta pe</w>
t ell
t chen</w>
süßi gkeiten</w>
sym bo
swee ps</w>
suit case</w>
stü ten</w>
stö ßt</w>
strü m
strau ß</w>
stei ger</w>
stat t
sta hl
st ops</w>
st in</w>
st are</w>
st all</w>
ssi ert</w>
sprung brett</w>
spiel erisch</w>
spani sh</w>
span nt</w>
soon ers</w>
sonnen schirm</w>
so m
snow suit</w>
skat ers</w>
si ve</w>
shop pers</w>
shir ted</w>
shado ws</w>
ser ves</w>
sel bst</w>
se em</w>
se con
se attle</w>
scoo ters</w>
sco uts</w>
schü tz
schü sseln</w>
schwimm weste</w>
schwe bt</w>
schnü ffelt</w>
schnit zt</w>
schnee anzug</w>
schn ell
schlei fe</w>
scha fe</w>
sch mi
sch ale</w>
sat z
san digen</w>
sa iten
s ele
rut schen</w>
ru der
rollerskat es</w>
rollerbla ding</w>
ro of
rin ger</w>
rik sch
ricksha w</w>
restauran t
repair ing</w>
rekla me
rei hen</w>
rea d
re por
ran ge</w>
radre nn
ra dio</w>
r e</w>
qu o
pu ppies</w>
pu del</w>
prä sentation</w>
profe ssor</w>
presen ting</w>
pop corn</w>
pla cing</w>
pil lows</w>
pig tails</w>
pat terned</w>
parach ut
par cours</w>
par al
paper work</w>
pa sst</w>
pa are</w>
p ump
oran ger</w>
olympi cs</w>
ol o
o x
o w
o usly</w>
not en
nie der</w>
newspa pers</w>
new ly</w>
ne e
ne bel</w>
mü n
männ liches</w>
mä her</w>
mountain biker</w>
mo vie</w>
mo p</w>
mm ing</w>
mix er</w>
mikro f
mi scht</w>
mi erter</w>
mi am
miam i</w>
mer chan
merchan di
merchandi se</w>
mcdonal ds</w>
mcdonal d</w>
maschen drahtzaun</w>
mar k</w>
m ed</w>
län zenden</w>
lä u
loo m</w>
lo ad</w>
ll t</w>
ley way</w>
let ter</w>
leit ung</w>
le cture</w>
kü mmert</w>
kö pfe</w>
kreu z</w>
krei de</w>
kni fe</w>
kne es</w>
kn öpfen</w>
kn all
klar en</w>
ka sse</w>
k eln</w>
k ell
ju ice</w>
jack ett</w>
iti es</w>
iro n</w>
inter ess
inspe cts</w>
ing ton</w>
in ju
i s
i es</w>
hun des</w>
hun der
horiz on
high way</w>
herum stehen</w>
herau sh
her bst
hem d
hellhäuti ge</w>
heiß luftballon</w>
hea ding</w>
han ding</w>
ham burger</w>
h en
gä ste</w>
gymnasti cs</w>
gra ph
golf ball</w>
gip fel</w>
gi ve</w>
geöff neten</w>
gestrei fter</w>
gesi chtern</w>
geri cht</w>
gepunk teten</w>
geno mmen</w>
geh ör
gegenstän den</w>
gebil det</w>
ge sell
gam es</w>
g länzenden</w>
g ar</w>
freund in</w>
fore head</w>
for t</w>
fontän e</w>
fit ne
fe ath
fashi oned</w>
fa ss
fa r</w>
exhi bit</w>
exerci se</w>
ers eite</w>
er ung</w>
ent re
en ti
en ge</w>
ein hei
ein fahrt</w>
eig nis</w>
ei scre
eh men</w>
dunkl em</w>
dudel sack</w>
du st</w>
dru ck
dri ve</w>
dor f</w>
del i
de sign</w>
d eren</w>
cover s</w>
coun tryside</w>
coo ks</w>
comput ern</w>
comple te</w>
co ck
cla ssi
cla pping</w>
ck ens</w>
ck en
chi cken</w>
ch el
cam ping</w>
ca kes</w>
c ause</w>
bur ning</w>
bu cks</w>
brä un
bro cken</w>
bro ch
bri cks</w>
break dance</w>
boul der</w>
boar ding</w>
boar der</w>
blo ckt</w>
blo cken</w>
blan kets</w>
bl ur
bil lar
bikin is</w>
bi gen</w>
beweg ungen</w>
bever ages</w>
beton wand</w>
bemal ten</w>
beisam men</w>
beg leitet</w>
be trie
be en</w>
be ach
bam boo</w>
bal let</w>
bag pipes</w>
bade zimmer</w>
bade anzügen</w>
bad min
ba l</w>
b iting</w>
b ite</w>
b ell
ausseh en</w>
ausge stellt</w>
aus lage</w>
aufger ei
aufge stellt</w>
atten ding</w>
arti gen</w>
arbeit ern</w>
ar ch</w>
app lying</w>
anhän ger</w>
an wei
an sieht</w>
al leyway</w>
ac compani
a kro
a g
übun gen</w>
über all</w>
ü bung</w>
ör tlichen</w>
är lich</w>
ähn lichen</w>
zü n
zun ehmen</w>
zu gs</w>
zo o</w>
zel t
z y
zy lin
y o</w>
y ar
yar n</w>
wunder schöne</w>
wor ko
worko ut</w>
wo ll
wet te</w>
weit er</w>
weihnachts mann</w>
weihnachts mann
web stuhl</w>
wea ther</w>
we ap
wat ched</w>
wassers ki</w>
wasser spren
wasser rutsche</w>
wash er</w>
wake board</w>
w on
w ning</w>
w are</w>
vord erseite</w>
vor führung</w>
verw enden</w>
verkehr s
verkaufs stand</w>
ver teilt</w>
ver la
ur ein
unterschied lichen</w>
unter richt</w>
unord ent
under wear</w>
und ro
undro mat</w>
un u
unu su
un k</w>
u chen</w>
tür öffnung</w>
tö pfer
tw ork</w>
turn schuhen</w>
tur quo
turquo ise</w>
tu g</w>
trä gern</w>
trol ley</w>
tri p</w>
tri cycle</w>
tri bal</w>
trav eling</w>
transpor tiert</w>
tor ch</w>
toi let
tin y</w>
ti ghts</w>
ti cket</w>
th in
th ers</w>
ter i
telefon z
teilneh mer</w>
te ens</w>
t uni
t i</w>
säug ling</w>
säu le</w>
synchro ni
swimm ing
swimming pool</w>
swim suits</w>
suspen ders</w>
sur ger
surger y</w>
supp lies</w>
super man</w>
sun light</w>
stü tzt</w>
stru mpf
strei chen</w>
stre cken</w>
straßen verkäufer</w>
str ange</w>
stie fel</w>
ste g</w>
staub sau
st on</w>
st .</w>
ss el
sprun gen</w>
spre cher</w>
spea k</w>
sp ärlich</w>
sp arring</w>
snow shoes</w>
sna cks</w>
sky line</w>
silber farbenen</w>
sicherheit s
si ms</w>
sho w
sho re
shore line</w>
servi ert</w>
selt samen</w>
secon d</w>
se par
schütt eln</w>
schwe ster</w>
schri ften</w>
schne eh
schlauch boot</w>
schlag mann</w>
schil d
schach tel</w>
sch l
sch ar
samm eln</w>
sa ck
s l
rück wärts</w>
rollersk ating</w>
roll en</w>
ro w
riksch a</w>
richt ungen</w>
ri ce</w>
recor d</w>
re chte</w>
rau ch
ra pi
rapi ds</w>
ra lly</w>
pun kt</w>
pu ppen</w>
präsen tiert</w>
prin ted</w>
practi ces</w>
pr o</w>
pos ed</w>
portra it</w>
pony tail</w>
pon ch
pol iti
po wer</w>
po or</w>
play fully</w>
plasti k</w>
plan ting</w>
pla ced</w>
pink farbener</w>
pin g
pi cks</w>
pferde schwanz</w>
pfan ne</w>
pf er</w>
pf ei
pat ch</w>
pass ers
passers by</w>
parach ute</w>
pa pp
orientali sche</w>
op ens</w>
obst stand</w>
ober en</w>
navi g
nach bar
na men</w>
na il</w>
mü l
mögli cher
möglicher weise</w>
männ lichen</w>
männ er
mu g</w>
motori zed</w>
motor cyclists</w>
mor ning</w>
mod ell
mo wer</w>
mo ck</w>
mm ern</w>
mittel alter
mini at
militä ri
mi sch
mi l
me et</w>
me dium</w>
me a
mar t
man eu
magaz ines</w>
m t</w>
m mi
lö schen</w>
lo u
lo gs</w>
lo cation</w>
lin k</w>
ligh ted</w>
liefer wagen</w>
lie ßt</w>
lie ge
lich keit</w>
li fts</w>
leuchten den</w>
lei mer</w>
lebensmitt eln</w>
lear ning</w>
lea p</w>
lar ger</w>
lar ed</w>
langärmel igen</w>
labor kittel</w>
la undromat</w>
la bel
l y
kü hl
kr an</w>
kostü me</w>
kopf schmuck</w>
kol legen</w>
klein kinder</w>
klein eren</w>
kin gs</w>
ker le</w>
ken n
kaya king</w>
ka stan
ka b
k aro
jün gerer</w>
jugend lichen</w>
je der</w>
japan ischen</w>
ja pan</w>
ja ck</w>
invol ved</w>
innen stadt</w>
inju red</w>
in er</w>
in dem</w>
i pod</w>
i ge</w>
i g</w>
händ chen</w>
holz bank</w>
ho l</w>
ho her</w>
ho he</w>
hinder ni
hi spani
herr en</w>
her z
hall en
h um
gur t</w>
grill s</w>
gewi cht</w>
gesch o
geri chtet</w>
gepf laster
gelände wagen</w>
geb ü
ge sprungen</w>
ge sen
ge sehen</w>
ge ment</w>
ge fle
gath ers</w>
g ul
fü llen</w>
fußgän gern</w>
fußball dress</w>
frü h
fro n
frie den
freu de</w>
fr auen
form t</w>
foc used</w>
flo ats</w>
flauschi ger</w>
firefigh ter</w>
fini shed</w>
fil m</w>
fi scht</w>
feuerwehr auto</w>
fels vor
fe der
fe cht
fashi on</w>
fa ir
fa c
ex plo
eth ni
erkli mmen</w>
er zeug
er ende</w>
enthusi a
ent gegen</w>
ent gegen
ele v
eiscre me</w>
einkaufsta sche</w>
ei mern</w>
e glasses</w>
dunkel ten</w>
du sty</w>
dri b
dra wn</w>
dr ängt</w>
dr än
do t</w>
din er</w>
dig keit</w>
di ves</w>
desc ent</w>
de partment</w>
dar biet
darbiet ung</w>
crou ched</w>
cross ed</w>
cre ek</w>
cou ples</w>
con tra
clo sely</w>
ci l</w>
che ss</w>
che ek</w>
chal k
ch atting</w>
celebra tion</w>
cat ed</w>
care fully</w>
ca ge</w>
c el
bulldo zer</w>
bu dd
brett spiel</w>
braun haariger</w>
bou quet</w>
bord stein</w>
bo ck
blät ter
blo od</w>
bi es</w>
ben d</w>
be steht</w>
be kleideter</w>
be kleidete</w>
be kleidet</w>
back drop</w>
bab ys</w>
auto mat
aus druck</w>
au ge</w>
ati ons</w>
ass em
asi ans</w>
ar twork</w>
ar ri
ar me
am pel</w>
all ing</w>
afro amerikanischer</w>
adju sting</w>
ad v
abge worfen</w>
a f
übergewich tiger</w>
über da
öffent lichkeit</w>
äl t</w>
äh t</w>
ä t</w>
ß er</w>
zylin der</w>
zu cker
ziel linie</w>
ziegel wand</w>
ziegel steinen</w>
zi gar
zi g
zer emon
ze ment
za uns</w>
z ens</w>
work shop</w>
wol ken</w>
wol ke</w>
wind hund</w>
wil den</w>
wh om</w>
wehr en</w>
war en
wander weg</w>
walk ed</w>
wa shes</w>
w äl
w elt</w>
vortra g</w>
vergnü gt</w>
ver zierten</w>
ver n</w>
ver letz
ver bun
ve way</w>
vacu um
v in
v as</w>
v alley</w>
up ward</w>
unter richtet</w>
unter en</w>
unordent lichen</w>
universit y</w>
ungewöhn lichen</w>
u ble</w>
tt et</w>
trin k
tri fft</w>
transport ation</w>
tran s
tra sh
trash can</w>
tour nament</w>
todd lers</w>
thum b</w>
tho se</w>
the at
tal ent</w>
tack elt</w>
t ug
t ation</w>
symbo l</w>
surf s</w>
stum p</w>
strom schn
stro ke</w>
stre et
stra hl
stor m</w>
stol z</w>
stil ts</w>
sti ften</w>
stell ten</w>
stel zen</w>
ste pping</w>
stau bigen</w>
st in
st erten</w>
st ert</w>
st al
ssi ve</w>
ssa al</w>
ss ance</w>
squ e
spra yed</w>
spon gebo
spongebo b</w>
spiel platz
spiel e</w>
spea ker</w>
sol l</w>
sk ol
sk o
sin gle</w>
sie g</w>
side ways</w>
sha pe</w>
sh ar
ser ve</w>
sei cht
sea gul
sci enti
schwin gen</w>
schwarz haarige</w>
schutz kleidung</w>
schutz ausrüstung</w>
schnee schuhen</w>
schne it</w>
schmin kt</w>
schl end
schlend ert</w>
schau lusti
scha cht
sch lü
sch lan
scen ding</w>
scaff old</w>
sar is</w>
s y</w>
s eries</w>
rück sitz</w>
rück seite</w>
ruhi gem</w>
roof top</w>
roll ern</w>
road side</w>
ro o
ro bo
rin ged</w>
repar at
ren ai
renai ssance</w>
re gneri
regneri schen</w>
ra cers</w>
qui ck
quick ly</w>
qu ad
pu zz
pu b</w>
ptu res</w>
produ cts</w>
pro gra
pro cess</w>
potat o</w>
po ts</w>
play ed</w>
pin s</w>
pf lo
per len</w>
pee king</w>
parti e</w>
pa st
pa ds</w>
p rie
p in</w>
or en</w>
op y</w>
op ter</w>
obdachlo ser</w>
oba ma</w>
o sk</w>
nä cht
nur ses</w>
num bers</w>
note book</w>
niedri gen</w>
ni ke</w>
ne ws</w>
ne qu
nat ur
namens schild</w>
nam ens</w>
na sser</w>
na ss
n or
mül leimer</w>
musik gruppe</w>
mp ft</w>
motor rad
motor haube</w>
mexi can</w>
menschen ansammlung</w>
men ten</w>
mei ß
mei sten</w>
me ter</w>
me ga
mar ker</w>
mar ch</w>
man nequ
mal er
ma st</w>
ma inten
mainten ance</w>
m m</w>
läu fern</w>
lächeln den</w>
lo h
lo cated</w>
lin ing</w>
lin gs</w>
ligh ting</w>
lea gue</w>
le ts</w>
le ger</w>
land straße</w>
lager feuer</w>
lach ende</w>
la bra
l led</w>
l ens</w>
l a</w>
kör per
käfi g</w>
kurz em</w>
kur ze</w>
kun st</w>
kti on
krä fte</w>
kranken haus</w>
kra tzt</w>
kra ft</w>
konferen z</w>
ko m
klapp stuhl</w>
ki osk</w>
kau ert</w>
kastan ien
kar tons</w>
kampf sport
kab ine</w>
k rü
k o</w>
jugg les</w>
je we
itä t</w>
invol ving</w>
inter agi
inc line</w>
ic y</w>
ic opter</w>
i en</w>
i denti
hü pf
hü gel
hu sky</w>
holz boden</w>
hoch zu
hil ls</w>
hi ke</w>
hi ding</w>
herr n</w>
her kunft</w>
hel icopter</w>
head dress</w>
harmon i
har d
hand rail</w>
halsk ette</w>
h ren
h at
größ eren</w>
gru be</w>
gre en
gra du
gr and</w>
go at</w>
gitarri sten</w>
git arren</w>
geschn itten</w>
geschla fen</w>
geh ü
geh enden</w>
ge folgt</w>
gaz es</w>
gall ery</w>
gal erie</w>
ga ze</w>
ga s
ga p</w>
fä cher</w>
fußball mannschaft</w>
fur ry</w>
fu r</w>
fröh lich</w>
fro zen</w>
frise ur</w>
frieden s
frem den</w>
freizeit park</w>
fol i
flie genden</w>
fitne ss
fini shing</w>
fi sche</w>
fi er</w>
fer tigen</w>
farbi ger</w>
fac ility</w>
fabri k</w>
fa sst</w>
f loo
erzeug nisse</w>
erd hügel</w>
er reichen</w>
er le
entfern ung</w>
ent u
en gel</w>
embra cing</w>
ein geschlafen</w>
ein fa
eg g</w>
eben falls</w>
ear phones</w>
e ver
dä mmerung</w>
dri veway</w>
drei rad</w>
do sen</w>
displa ys</w>
displa ying</w>
digit al</w>
den t</w>
demon str
decorati ve</w>
d ut
d ump
d u</w>
d t</w>
d one</w>
cre ating</w>
cow girl</w>
contra ption</w>
col lared</w>
co ver</w>
co p</w>
clou d</w>
classi c</w>
ci ali
chop ping</w>
chi ps</w>
che mi
che ese</w>
che e
chalk board</w>
ch el</w>
ch all
celebra te</w>
casu ally</w>
can vas</w>
camer a
ca st</w>
ca sino</w>
c ute</w>
c ul
burg under
brü ne
bro ther</w>
briti sh</w>
bri des
bran ches</w>
boot es</w>
bo den
bla ck
bin det</w>
billar d</w>
bil des</w>
bil dern</w>
berg steiger</w>
bela den</w>
bel ts</w>
be wal
be vor</w>
be stellen</w>
be sitz</w>
bau werk</w>
baseball schläger</w>
ba bies</w>
b ö
b chen</w>
automat en</w>
ausge streckt</w>
aus flug</w>
aufgerei ht</w>
aufger egt</w>
at m</w>
asp halt</w>
asi a</w>
arbeit er
ara bi
approa ches</w>
angebo ten</w>
ange mal
ange bracht</w>
an zeige</w>
an gle</w>
an g</w>
an einander</w>
amüsi ert</w>
ami dst</w>
afrikani schen</w>
af ter
activ ity</w>
acro bati
abge stellt</w>
ab gebildet</w>
a xt</w>
a u</w>
a part</w>
überda chten</w>
über prüfen</w>
ü gel</w>
öff nen</w>
ö ser</w>
är z
ähn lich</w>
zz y</w>
zw .</w>
zi mmer
zeit schriften</w>
zeich nen</w>
ze bra
zau ber
z it
zit ro
wür de</w>
wär t
wär men</w>
wr ites</w>
win digkeit</w>
wi g</w>
wheel er</w>
wh o
wet ter</w>
wen n</w>
wel come</w>
weit eren</w>
wasser fläche</w>
war men</w>
wa it
wa ist</w>
w in</w>
vö lli
völli g</w>
vord eren</w>
vor führt</w>
vi s
vergnü gen</w>
ver wir
v ri
v a</w>
ut sche</w>
up set</w>
unifor mierter</w>
unifor mierte</w>
uni que</w>
ung lück
un happy</w>
um rin
umrin gt</w>
u al</w>
tätowi erte</w>
ty pes</w>
tu n</w>
trä ger</w>
tro ph
tro lle</w>
tro ffen</w>
tri pod</w>
treppen haus</w>
tre at</w>
tr o</w>
tor y</w>
to oth
ti ps</w>
ti led</w>
ti ght</w>
ti ges</w>
th way</w>
th i
th an</w>
ten ds</w>
ten der</w>
teil nehmen</w>
tanz fläche</w>
tags über</w>
ta sk</w>
ta gs</w>
t ure</w>
t rench</w>
t ren
t ol
t emp
sy stem</w>
sur e</w>
sun gen</w>
stä bchen</w>
sty li
stromschn ellen</w>
straßen seite</w>
straßen musiker</w>
straßen arbeiter</w>
stra pped</w>
str ands</w>
sto op</w>
stein treppe</w>
stei le</w>
ste cken</w>
stati v</w>
stat u
stan t</w>
stam me
sta cked</w>
sta bli
sta b
st rolls</w>
ssi ons</w>
ss e
sque e
sprit z
spiel ers</w>
spiel erinnen</w>
spei se
spazi ert</w>
sp äht</w>
sp ot</w>
sp ir
sp at
sor ting</w>
soa p</w>
so u
snowboar ds</w>
sni ff
sniff ing</w>
sle dding</w>
sk ap
sicherheit sweste</w>
si del
shin y</w>
sha w
sh ment</w>
sh iel
ser vice</w>
sel i
sel be</w>
sei chten</w>
segel boot</w>
se ction</w>
schür zen</w>
schü tzt</w>
schü tzen</w>
schwi mmen
schwe stern</w>
scho ko
schneebedeck tes</w>
schneebedeck te</w>
schlam migen</w>
schein lich</w>
schaft s
schacht eln</w>
sch len
sch ach</w>
scen ic</w>
sc ore</w>
sc ent</w>
saxof on</w>
sau ber</w>
sa y</w>
sa wing</w>
sa i
sa ft</w>
sa d</w>
s mart
s king</w>
rö hre</w>
ru dern</w>
ro sti
ro ll</w>
ri ver
ri ot</w>
ri f
rif le</w>
ri cket</w>
rest ed</w>
religi ous</w>
reklame tafel</w>
regen mantel</w>
regen bogen
refle ction</w>
recor ding</w>
re mo
re lea
re ally</w>
rau chen</w>
rasen mäher</w>
rasen fläche</w>
rain coat</w>
radrenn fahrer</w>
ra v
r and
pun k</w>
pump kin</w>
pull under</w>
protesti ert</w>
prote sters</w>
probi eren</w>
pro f
pre ss
po w
po p</w>
po k
plat ten</w>
pier cing</w>
pflo ps</w>
pfer der
pfa hl</w>
pf eil</w>
perü cke</w>
pen cil</w>
ped al</w>
pe er</w>
pati enten</w>
pat tern</w>
passagi ere</w>
paral le
paralle l</w>
pain ter</w>
pa thway</w>
pa ssiert</w>
pa d</w>
p rei
p ale</w>
orientali sch</w>
orange farbenes</w>
or ing</w>
oper ates</w>
ong ings</w>
olympi c</w>
ol d
od les</w>
o sten</w>
no on</w>
nati on
na ss</w>
na cht
n on</w>
n erin</w>
mün z
mö n
mö bel
mä ht</w>
muzz led</w>
muzz le</w>
musikinstru mente</w>
moto cross
mon key</w>
model l</w>
mo un
mo tion</w>
mo o
min i</w>
mexi kani
ment ary</w>
men u</w>
meer e
mask en</w>
man ö
m ur
lä dt</w>
lum in
lok al</w>
lo sen</w>
lie gende</w>
li sse</w>
li ppen</w>
li c</w>
ler nen</w>
lei ch
le m
later nen</w>
lang ärm
lamp en</w>
la st</w>
la gen</w>
la de
l ten</w>
kä mpft</w>
kun d
ku lisse</w>
kra gen</w>
kon trolle</w>
kommen en</w>
kno wn</w>
kni e</w>
knei pe</w>
kn ö
kl y</w>
kimon os</w>
karo hemd</w>
kar to
kar t</w>
kapuzen pullover</w>
kaja k
k tor
k rö
k ricket</w>
k auf
jum per</w>
jum ped</w>
jog ger</w>
jo y</w>
jo gs</w>
jewe ils</w>
irokesen schnitt</w>
ir ur
intere sting</w>
in der</w>
ima ges</w>
il lumin
hüb schen</w>
hüb sche</w>
hu dd
hu b
horiz on</w>
holz zaun</w>
hoh es</w>
hoh em</w>
hinter beinen</w>
high chair</w>
herunterge kommenen</w>
heraush än
her bst</w>
her aus
hell er</w>
hei m
heav ily</w>
he ar
hau t</w>
hand wer
hand le</w>
han ded</w>
ha b
h op
h enden</w>
gru ppen
gre ss</w>
gra bs</w>
gra bbing</w>
gra b</w>
gle is</w>
gla tze</w>
gitar ren
gi cal</w>
geöff ne
gest uring</w>
geschnitt enen</w>
gesch windigkeit</w>
gepä ck
gepflaster te</w>
gepf le
gen t</w>
gele genen</w>
gel angen</w>
geh ol
gegneri sche</w>
geburtsta g
ge öffnet</w>
ge troffen</w>
ge stellt</w>
ge spannt</w>
ge setz
ge o
ge flo
ge fallen</w>
gaz ing</w>
garden ing</w>
führ er</w>
för m
fro ren
frise ur
fre e
form eller</w>
for men</w>
foot ed</w>
foli age</w>
fo ods</w>
flü gel</w>
fluss ufer</w>
flug zeugs</w>
flu sses</w>
fli pflops</w>
flan nel</w>
fischer netz</w>
fi shes</w>
fest gebunden</w>
fernseh er</w>
fer tig</w>
fen stern</w>
felsvor sprung</w>
fels brocken</w>
fel sk
fei er
feat uring</w>
fass ade</w>
far mers</w>
famili en
fahren den</w>
f rench</w>
ex tre
ex pl
ev en</w>
etw a</w>
essens stand</w>
erleu chteten</w>
er hö
er hobenen</w>
entfer nen</w>
en tra
employ ees</w>
elektri schen</w>
ele mentary</w>
el e</w>
eisho ckey</w>
eisen bahn
einkauf stüten</w>
eink aufen</w>
eini ger</w>
ein richtung</w>
ei sk
e stabli
e p
dun king</w>
dun k</w>
dump ster</w>
du cks</w>
drit ter</w>
dri bbelt</w>
drag ging</w>
dra w</w>
dr itten</w>
down hill</w>
displa yed</w>
dis ney</w>
die sen</w>
di ve</w>
di ert</w>
dess ert</w>
del i</w>
decorati ons</w>
de x</w>
dar in</w>
dar an</w>
da hinter</w>
crow ds</w>
cra tes</w>
conc entra
con taining</w>
cock pit</w>
co late</w>
clou ds</w>
clean er</w>
ck el
cir cular</w>
ci gar</w>
ci dent</w>
chop sticks</w>
cho colate</w>
chinesi sche</w>
cher ry</w>
cheerlea ding</w>
check ers</w>
che wing</w>
ch te
ch irur
ch ie
ch am
cell phones</w>
cand le</w>
can y
can adi
canadi an</w>
cam p</w>
cam p
ca pped</w>
ca b</w>
butter fly</w>
bull en
buil t</w>
bu sh
brun nen
bru shes</w>
bru der</w>
break dancing</w>
bra ss</w>
boun cing</w>
boo ths</w>
bon go</w>
bohr maschine</w>
bo ra
bla sen
bin den</w>
bi cycling</w>
bewal deten</w>
betra chter</w>
ber ry</w>
ber et</w>
ben ds</w>
beleu chtet</w>
bel ongings</w>
begeister ung</w>
beg ins</w>
befahren en</w>
bedru ckten</w>
bedi enen</w>
beam te</w>
beach volleyball</w>
be treten</w>
be sucht</w>
be sitz
be d
bauern markt</w>
bath tub</w>
ball on
back flip</w>
ba st
b zw.</w>
b ten</w>
b arren</w>
außen bereich</w>
auto bahn</w>
ausseh endes</w>
ausge zogen</w>
aus sicht</w>
aus ländi
aufga ben</w>
attra ktive</w>
attra ctive</w>
ati onen</w>
at ers</w>
asi at</w>
aqu a</w>
apro ns</w>
ap fel</w>
angezogen er</w>
an t
an haben</w>
amerikani sches</w>
am o
al t</w>
al most</w>
al ko
aku sti
ak ten
after noon</w>
adju sts</w>
ac ce
absperr ung</w>
ab and
a ble</w>
0 0
ü b
zün det</w>
zü ge</w>
zä un
zu hört</w>
zu hause</w>
ziel t</w>
ziel en</w>
ziegel gebäude</w>
ziegel bau</w>
zi eh
zeremon ie</w>
zer innen</w>
zel ten</w>
zahn bürste</w>
z hut</w>
z eh
y am
yam ah
yamah a</w>
x e
woll mütze</w>
wind hunde</w>
wild nis</w>
wi ppe</w>
wheel ed</w>
wh en</w>
wett ei
werk zeugen</w>
wer fer
weit erer</w>
we gen</w>
waterski ing</w>
wasserspren ger</w>
wasser becken</w>
wash ington</w>
wasch maschine</w>
wart ungs
war eho
wareho use</w>
wahr scheinlich</w>
wach mann</w>
wa sh</w>
wa iter</w>
wa che</w>
vö geln</w>
vor sich
vorsich tig</w>
vor be
volley ballspieler</w>
voll stän
vin tage</w>
vi ctory</w>
vi bran
verwir r
versu ch</w>
verschie den</w>
versch wo
versch rän
verschrän kten</w>
vers e</w>
ven ding</w>
var ie
varie ty</w>
ut en
uten si
ur o</w>
unusu al</w>
unter hemd</w>
uni ce
unice f</w>
under ground</w>
un te
un ge
un e</w>
un a</w>
umge benen</w>
u red</w>
ty pi
tu xe
trock net</w>
trock enen</w>
trei de</w>
tran sit</w>
tra vel</w>
tra ins</w>
tra ck
tooth brush</w>
to o</w>
ti scher</w>
ti mer</w>
theat er
ter y</w>
ter ns</w>
tenni splatz</w>
telefonz elle</w>
telefon ieren</w>
teena gern</w>
team mates</w>
te xt</w>
te dd
tedd y
tax is</w>
tau be</w>
tack led</w>
ta ble
t ying</w>
t read
tread mi
t ching</w>
sä gt</w>
sä cke</w>
synchroni zed</w>
sweat shirts</w>
sur ing</w>
sur gical</w>
su v</w>
stü tz
stü r</w>
stä mmen</w>
stum pf</w>
stu ff</w>
stu ck</w>
strüm pfen</w>
strumpf hose</w>
stri pe</w>
stri ert</w>
stret ches</w>
strei fen
stre am
straßen szene</w>
straßen fest</w>
str y</w>
str o</w>
sto ck
stin ation</w>
ster n
stell te</w>
stein bank</w>
stau b</w>
star bucks</w>
stadt park</w>
stab hoch
sta un
sta g</w>
sta ffel
sta ff</w>
sta ben</w>
st rolling</w>
st ringed</w>
st ars</w>
st amm
squee zing</w>
sprin ger</w>
spra ys</w>
spot light</w>
sporth alle</w>
spla shed</w>
spit zen</w>
spielzeug auto</w>
spiel sachen</w>
spiegel bild</w>
spee do</w>
spee ding</w>
spe ktive</w>
sp ru
sp ins</w>
sonnen licht</w>
sommer tag</w>
some where</w>
som br
sombr er
so eben</w>
smart phone</w>
sla m</w>
skul öser</w>
skin ny</w>
skil ls</w>
ski es</w>
skat et</w>
skap elle</w>
sk e
sin stru
sin e</w>
silhou et
silber ne</w>
sig ning</w>
sicherheit swesten</w>
shado w</w>
sha ggy</w>
sh out
sh ing
sh elf</w>
servi eren</w>
sel bst
seifen blase</w>
se ar
scu lar</w>
schö ner</w>
schwen ken</w>
schwar m</w>
schw ere</w>
schut zwe
schut t</w>
schrau ber</w>
schr itt</w>
schna ppt</w>
schn or
schlu cht</w>
schlo ss</w>
schlen dern</w>
schie ß
scha f</w>
sch ran
sch malen</w>
sch eln</w>
sch als</w>
sc rubs</w>
sau gt</w>
sar i</w>
sand burg</w>
sail boat</w>
sa il</w>
s farbenen</w>
rü hrt</w>
run i
ruhi g</w>
rugby spieler</w>
ru gs</w>
ru der</w>
rothaari ger</w>
rosti gen</w>
rosaro ten</w>
roll ers</w>
rock band</w>
ro sen</w>
ri dor</w>
religi ö
red head</w>
re turn</w>
re ce
ra te</w>
puzz le</w>
put zer</w>
pur ses</w>
pun ch</w>
prä ch
prote st
prote ct</w>
proje ctor</w>
produ ct</w>
probi ert</w>
pp el
porträ t</w>
polo hemd</w>
po urs</w>
po ol
po cket</w>
pla in</w>
pizz eri
pizzeri a</w>
pin sel</w>
pier c
photograph ers</w>
pf ire</w>
per spektive</w>
pe ers</w>
pe an</w>
patri o
pack age</w>
pa y</w>
pa pa</w>
pa in</w>
pa cking</w>
pa cked</w>
p tur
p ting</w>
p run
p p</w>
oze ans</w>
out fiel
orientali scher</w>
on ne</w>
old timer</w>
obje kti
o re
o kla
okla ho
oklaho ma</w>
o ch
num mern</w>
nu n</w>
not es</w>
navig ates</w>
nat ur</w>
nack te</w>
na pping</w>
na ils</w>
na hen</w>
n ungen</w>
mö chte</w>
mäd chen
mur ky</w>
mu skulöser</w>
mu scular</w>
mu ch</w>
mon k</w>
mo use</w>
mmer cial</w>
mm uni
mit spieler</w>
mini van</w>
militä runi
mi x</w>
mi dst</w>
metall stange</w>
mem ade</w>
meiß elt</w>
mehr farbigen</w>
mediz ini
me ss</w>
mat ra
mask s</w>
marathon läufer</w>
mar ki
mar i
mar ble</w>
man i
mai ds</w>
ma sten</w>
ma in</w>
ma g
loo ked</w>
loa ded</w>
lo r</w>
ll y
li vely</w>
li ppen
li ppe</w>
li on</w>
li fe
leop ard</w>
lea f
le gerer</w>
le cker
le b
lan terns</w>
lade fläche</w>
label ed</w>
la y
la ma</w>
la dung</w>
la bora
labora tory</w>
l ands</w>
kür bis</w>
kü sten
käm pfer</w>
kreuz ten</w>
kra gen
kopfbedeck ungen</w>
kopf stein
kon trol
komp letter</w>
ko mmuni
kla mmert</w>
kl ein</w>
kit ch
kitch ena
kitchena id</w>
kin ds</w>
ki sses</w>
ker ze</w>
ken ed</w>
kee per</w>
ke geln</w>
kari erter</w>
kan erin</w>
kan adi
kampf sportler</w>
kam m</w>
kajak fahrer</w>
kaja ks</w>
ka put
ju dges</w>
jogg ing
jahr markt
it ali
is land</w>
irgend einem</w>
ir ä
ing ham</w>
industri al</w>
indi en</w>
indi ani
indi a</w>
in ner
in formation</w>
imbi ss
il t</w>
ic a</w>
i mp
i m
i erten</w>
i er
hü fte</w>
hänge matte</w>
hydr anten</w>
hydr ant</w>
hub schrauber</w>
hu man</w>
hu hn</w>
hosen trägern</w>
horizon t</w>
holz konstruktion</w>
holz brett</w>
hol i
hockey spiel</w>
hoch stuhl</w>
hoch ha
ho memade</w>
hispani c</w>
hin auf
heraushän gender</w>
her o</w>
hen na</w>
hell grünen</w>
head set</w>
hawai ian</w>
harmoni ka</w>
harmon ica</w>
hard wood</w>
har ve
handwer ker</w>
hand ys</w>
hamm ering</w>
ham mock</w>
hal tend</w>
ha d</w>
gür teln</w>
grün fläche</w>
grau es</w>
gra sp
gol den
go wn</w>
glä ser</w>
gleich gewicht</w>
gitar re
git ter</w>
gie ßen</w>
gi eren</w>
gewin nen</w>
gestreif te</w>
gest ure</w>
gesell schaft</w>
geschmü ckt</w>
gesch rie
gesch oben</w>
gerä te</w>
ger a
gel dau
geldau tomaten</w>
gei sh
gehü llt</w>
geh stock</w>
gegen über
gefä r
geflo chten
gebäu de
gebau ten</w>
geb ir
ge treide</w>
ge spielt</w>
ge froren
ge fahren</w>
gan gs</w>
g ne</w>
g lichen</w>
g leit
g ert</w>
g an</w>
för mi
fußgängerüber gang</w>
fuß boden</w>
fri schem</w>
founta ins</w>
for scher</w>
football spiel</w>
follo wed</w>
fo rested</w>
fo am</w>
flo wer
flie ge</w>
fin den</w>
film ing</w>
figu res</w>
fiel ds</w>
fern sehen</w>
fer tig
fel s</w>
fe dor
fedor a</w>
faulen zen</w>
fahrrad helm</w>
fahr zeugen</w>
fack el</w>
fa sz
fa cial</w>
f at</w>
ever y
euro pean</w>
euro pa</w>
eu rope</w>
establi shment</w>
es stisch</w>
es n</w>
erkli mmt</w>
er hält</w>
er eignis</w>
en vi
en nen</w>
employ ee</w>
eln den</w>
ell s</w>
elektroni schen</w>
el i
el ed</w>
el abo
eink äufer</w>
ein gewickelt</w>
ein e
ei er</w>
ed ly</w>
ear th</w>
ea sel</w>
e uro</w>
e ds</w>
dunkel heit</w>
dre irä
dra ws</w>
dra ped</w>
dra mati
do esn</w>
dire cting</w>
die selbe</w>
di cken</w>
desig ner</w>
denk mal</w>
den kt</w>
demonstr anten</w>
dekor iert</w>
de stination</w>
de st</w>
de ser
de ere</w>
de er</w>
de ci
day time</w>
dar über</w>
dar kened</w>
d ul
d ly</w>
d al
cross country</w>
cri es</w>
cre ate</w>
cray ons</w>
cra shing</w>
congre g
condu ctor</w>
con s
con ne
complet ed</w>
compani on</w>
comm uni
colum ns</w>
color fully</w>
co mmercial</w>
co mi
clut tered</w>
ck tem</w>
ck chen</w>
circ us</w>
ci gar
cham pa
ch in</w>
carri er</w>
car i
cany on</w>
cano es</w>
can al</w>
cam ping
cam pfire</w>
cam els</w>
ca ses</w>
c lar
c iti
bür stet</w>
bun ge
bun dle</w>
buch staben</w>
bu sh</w>
bu ried</w>
bu l
bu ck
bro t
bro ad</w>
brides maids</w>
brenn ende</w>
bre iten</w>
bre it
braut jung
bor d</w>
boo gie</w>
body suit</w>
bock enden</w>
bo ston</w>
blö cken</w>
bla skapelle</w>
bla sinstru
beton mauer</w>
bet et</w>
ben den</w>
bei ßen</w>
begei stert</w>
bed room</w>
bea ds</w>
be teil
be stehend</w>
be cause</w>
bau arbeiter
bati k</w>
basketball feld</w>
baseball feld</w>
base man</w>
bare footed</w>
bar tender</w>
ban ners</w>
bahn station</w>
bag ger</w>
badmin ton</w>
backstein mauer</w>
b led</w>
b ands</w>
ausgeb reit
aufger eg
aufblas bare</w>
auf zug</w>
at ely</w>
arti sts</w>
arran gement</w>
arme e</w>
anwei sungen</w>
angezogen e</w>
angel s</w>
an zahl</w>
an ts</w>
an sehen</w>
an gehalten</w>
amo unt</w>
ami sh</w>
am mer</w>
altmodi schen</w>
akti v
afro amerikanisches</w>
afri kaner</w>
acrobati c</w>
ac cident</w>
aband oned</w>
ab sol
a stro
- schild</w>
üb ers
än g
zwe ite</w>
zut aten</w>
zu recht</w>
zu hör
zu bereiten</w>
zig arre</w>
zie ge</w>
zi gen</w>
zeit ungen</w>
ze bra</w>
z entrum</w>
y si
y ear</w>
y be</w>
xylo phone</w>
xylo phon</w>
x e</w>
wü sten
wärt ss
wärtss al
wäh lt</w>
wä sche
wrest lers</w>
wr itten</w>
work man</w>
wood land</w>
wohn ung</w>
winter tag</w>
winter jacke</w>
wil li
wil der
wilder ness</w>
wie der</w>
weibli chen</w>
we der</w>
watermel ons</w>
wassermel onen</w>
wasser straße</w>
warn weste</w>
war t</w>
war ming</w>
wander ung</w>
wand maler
wa ffeln</w>
wa ff
w ere</w>
vorbe il
vor an</w>
volleyball spiel</w>
volk swagen</w>
vol unte
vol le</w>
vogel perspektive</w>
vis or</w>
violet ter</w>
video ta
video kamera</w>
vibran t</w>
verteidi ger</w>
ver steckt</w>
ver ing</w>
ver di
ve ter
ve gas</w>
vacuum ing</w>
vacu um</w>
v ro
v au
us band</w>
up wards</w>
unter grund</w>
un bekann
um zäunten</w>
um ten</w>
u kul
ukul ele</w>
türki sen</w>
tänz ern</w>
ty ping</w>
twi ster</w>
tur key</w>
tu bes</w>
tt on</w>
tropi schen</w>
troph y</w>
tro tting</w>
tro ttet</w>
treadmi ll</w>
tre ss</w>
trav els</w>
tradition elle</w>
track suit</w>
tr üben</w>
touri sten
top less</w>
to w</w>
to e</w>
tin ten
ti sches</w>
ti ppt</w>
tho ugh</w>
thi ck</w>
thedra l</w>
th or
teri a</w>
tem ple</w>
tell ern</w>
techni k</w>
tau ziehen</w>
tar p</w>
tank stelle</w>
tam bo
tambo ur
table cloth</w>
ta th
ta ins</w>
ta il
säu bert</w>
sw an</w>
surf ers</w>
supp ort</w>
super markt</w>
super market</w>
sun bathing</w>
stür zten</w>
stü cken</w>
stur m</w>
stun ts</w>
stun de</w>
stu hl
stru gg
stro m</w>
stri king</w>
stre ut</w>
straßen rennen</w>
stor te</w>
stoff tier</w>
sto res</w>
steu ert</w>
steh endes</w>
stea ks</w>
staubsau ger</w>
stat ur</w>
start linie</w>
starr ing</w>
stap elt</w>
stamme skleidung</w>
staffel ei</w>
stadt szene</w>
st rings</w>
ssen e</w>
squ ats</w>
spin n
spiel enden</w>
spi der
spider man</w>
spee ds</w>
spe er</w>
spar kl
sor tiert</w>
sol o</w>
so ciali
so cial</w>
sna p</w>
sn or
sm it
slee ves</w>
sla cks</w>
sky diving</w>
sklei d</w>
skateboar ders</w>
skat er
sk el
silhouet ted</w>
sidel ines</w>
sho wer</w>
sho e
shi ft</w>
shaw l</w>
shal le</w>
sha ke</w>
separ ate</w>
seni or</w>
selt sam
seli gkeiten</w>
seicht em</w>
segel t</w>
sea food</w>
se ments</w>
se it
se ating</w>
scul ptures</w>
sco t</w>
scienti st</w>
schütz ern</w>
schü lern</w>
schü lerin</w>
schö nes</w>
schwi eri
schwer tern</w>
schwe be
schwebe balken</w>
schoko laden
schn ür
schlitt schuhen</w>
schlie ßen</w>
schlie ß
schlei ft</w>
schlafen des</w>
schlafen d</w>
schla mm
schen kt</w>
schau m
sch är
sch un
sch on
sch er
sch an
schan ze</w>
scar a</w>
sc op
scop es</w>
sau sa
sand hügel</w>
s old</w>
s feld</w>
s att
s an</w>
s .</w>
ruder boot</w>
ru stic</w>
ru sh</w>
ron ment</w>
rodeo reiter</w>
ro lle</w>
ro hre</w>
ring kampf</w>
rie sen
ri se</w>
ri ch
reg net</w>
reflektier enden</w>
rece ption</w>
re sort</w>
re o
re gelt</w>
rasi er
rand stein</w>
ran gehöri
rail ings</w>
rad fahren</w>
ra z
ra ining</w>
ra ils</w>
ra g</w>
ra fts</w>
r äumen</w>
qui et</w>
quad ra
pyra mid</w>
pyra mi
py jam
pur chase</w>
pun ching</w>
pullo vern</w>
pu pp
pupp et</w>
ptur en</w>
prof i</w>
produ kten</w>
produ kt</w>
pro pan
prin ts</w>
presen ts</w>
prepar ed</w>
police men</w>
poin ted</w>
po wer
po odle</w>
po dest</w>
plüsch tier</w>
pla kat
pira te</w>
pige on</w>
pierc ings</w>
pick up</w>
pi cket</w>
pfei fe</w>
pfadfin der</w>
pel z
pea ks</w>
patro ns</w>
passagi eren</w>
par ks</w>
par ken</w>
par ent</w>
pal me</w>
paint ball</w>
pa cken</w>
pa ci
p ops</w>
p lea
p h</w>
p ans</w>
ox ford</w>
outfiel der</w>
ot tchen</w>
ord nung</w>
or t
or ned</w>
or dering</w>
on spieler</w>
ol li
obje kte</w>
o ur</w>
o il</w>
nä gel</w>
nu de</w>
noti z
new ly
newly wed</w>
neu en</w>
neckla ces</w>
nass em</w>
nam ed</w>
nack ter</w>
nach richt</w>
nach mittag</w>
na gel
na del
n ine</w>
n in
n ern</w>
müll container</w>
mö wen</w>
musikinstru menten</w>
musikinstru ment</w>
mu ss</w>
mountain ous</w>
moun ted</w>
mou ths</w>
motocross fahrer</w>
moti v</w>
monit ors</w>
moder nen</w>
mo wing</w>
mitglie dern</w>
mit t</w>
militä rangehöri
mikro sk
mi ckey</w>
men sch
mea suring</w>
me tri
me die
medie val</w>
me ado
meado w</w>
mask ottchen</w>
mark ed</w>
manö vri
mannequ in</w>
mann schaft
ma ybe</w>
ma y</w>
ma scot</w>
ma scara</w>
ma j
ma id</w>
m ehr</w>
m aus</w>
ll ing</w>
lin ke</w>
lin ge</w>
lila farbener</w>
lich tern</w>
li ve
li m
li eren</w>
li cking</w>
let scher</w>
leich tath
lebensmittel markt</w>
le vel</w>
le gos</w>
le go</w>
le gged</w>
lauf band</w>
lau t
later ne</w>
lan ges</w>
laden s</w>
la id</w>
la ck
la b
l ush</w>
kü mmern</w>
kunst galerie</w>
kun de</w>
kranken haus
kra bbelt</w>
kostü mierte</w>
kon zer
kol le
klapp stühlen</w>
kit e
khaki farbener</w>
kell ner</w>
kehr en</w>
kau k
kauk asi
kat zen
karten spiel</w>
kar a
kan us</w>
kan in
kan al</w>
kamera mann</w>
kam el</w>
kaffee tasse</w>
ka thedra
ka ppen</w>
ka p
ka beln</w>
k utsche</w>
k rug</w>
jeans shorts</w>
je t
it u
it ting</w>
irgend wo</w>
irgend einer</w>
interagi eren</w>
innen raum</w>
ing ly</w>
indi an
in t</w>
in se
