a 49256
. 27637
in 14929
the 10960
on 8087
man 7803
is 7538
and 7383
of 6875
with 6179
woman 3976
, 3963
two 3885
are 3728
to 3131
people 3122
at 2948
an 2927
wearing 2623
shirt 2325
young 2280
white 2238
black 2019
his 1969
while 1947
blue 1880
red 1802
men 1775
sitting 1743
girl 1728
boy 1689
dog 1681
standing 1614
playing 1584
group 1553
street 1449
down 1407
walking 1378
@-@ 1340
front 1276
her 1264
holding 1238
one 1096
water 1065
three 1057
by 1056
women 988
up 946
green 927
little 916
for 906
looking 895
child 894
as 880
outside 871
large 843
through 813
brown 795
yellow 785
children 768
person 753
hat 728
from 728
ball 726
their 725
into 711
small 671
next 664
other 660
dressed 643
out 633
some 624
over 615
building 603
riding 584
running 581
near 571
jacket 566
around 562
another 562
field 536
sidewalk 534
orange 526
crowd 522
beach 520
stands 498
pink 494
sits 492
jumping 491
behind 489
table 485
snow 478
grass 468
hair 466
background 460
stand 452
bike 449
city 445
&apos;s 444
air 443
girls 441
player 429
top 425
looks 423
asian 422
wall 418
off 406
dogs 406
four 405
several 404
that 404
older 402
camera 395
park 390
dress 390
talking 382
lady 380
something 380
blond 375
soccer 375
walks 371
along 370
guitar 368
working 365
boys 364
play 364
together 361
food 357
gray 354
smiling 353
has 340
game 340
picture 340
it 333
hand 332
car 331
plays 331
holds 322
old 316
bench 314
road 314
him 312
glasses 311
pants 311
shorts 304
sit 303
stage 303
side 303
walk 302
carrying 300
couple 299
baby 299
t 297
them 290
bicycle 288
face 287
tree 286
&quot; 280
pool 279
male 279
race 279
long 276
taking 275
rock 274
middle 272
each 272
doing 267
ed 265
dirt 263
head 262
watching 261
across 261
guy 260
jeans 259
there 259
boat 259
dark 258
area 258
day 254
back 252
jumps 250
hands 248
ground 246
female 245
room 245
performing 241
baseball 238
who 237
eating 236
coat 233
being 233
striped 232
suit 231
using 229
football 229
band 226
kids 225
watch 225
horse 225
its 224
under 224
many 223
store 222
mouth 221
purple 221
he 220
sign 219
this 216
haired 215
sand 214
runs 212
tennis 212
players 209
look 209
sunglasses 208
construction 208
reading 207
clothing 203
microphone 202
or 201
mountain 200
toy 199
covered 199
ocean 198
basketball 198
during 197
workers 197
watches 194
climbing 193
uniform 192
past 191
work 191
elderly 190
restaurant 188
helmet 188
re@@ 187
against 187
be 186
train 185
team 185
shirts 184
window 183
dancing 183
rides 181
chair 179
they 178
posing 178
about 177
wooden 175
trees 174
five 173
having 173
waiting 173
all 173
outdoor 173
ice 171
line 170
very 169
swimming 169
getting 168
floor 166
bag 166
trying 165
skateboard 163
colorful 163
high 161
busy 160
ing 160
singing 159
fence 159
jump 158
light 155
cart 154
book 151
laying 150
hill 150
inside 150
hats 149
market 149
s@@ 149
truck 149
y 147
tan 147
bright 147
ride 146
others 145
kitchen 145
cap 145
cellphone 144
path 144
grassy 144
big 143
someone 143
making 142
brick 142
night 141
bus 141
clothes 141
body 140
takes 140
motorcycle 140
e@@ 139
umbrella 139
towards 138
full 138
outfit 138
track 138
enjoying 137
colored 135
metal 135
swing 135
river 134
piece 133
paper 133
ready 133
es 133
open 132
tank 132
board 132
ers 131
she 131
s 130
shop 128
worker 126
sweater 126
trick 125
lake 125
painting 124
above 124
run 124
hard 123
african 123
adults 122
american 122
going 122
music 121
stone 121
house 120
vest 120
snowy 120
dance 120
surrounded 119
stick 119
wave 119
shopping 119
onto 119
uniforms 118
like 117
outdoors 117
crowded 117
photo 117
in@@ 116
phone 116
backpack 115
beside 115
smiles 115
gear 115
kid 114
set 114
pole 114
a@@ 113
hockey 112
subway 112
drinking 112
family 111
bridge 110
flowers 110
toddler 109
guys 108
arms 108
fire 108
gathered 108
event 108
w@@ 107
police 107
hanging 107
lot 107
catch 106
away 106
preparing 105
beautiful 105
k@@ 103
object 103
steps 103
o@@ 103
sleeping 103
costume 103
leaning 103
after 102
fishing 102
bar 102
ding 101
machine 101
rope 100
short 100
fountain 100
plaid 100
take 99
shirtless 99
p 99
stairs 99
adult 98
arm 97
graffiti 97
rocks 96
shoes 96
ly 94
selling 94
sunny 94
glass 94
does 93
forest 93
racing 93
d@@ 92
setting 92
pose 92
er 92
chairs 92
parade 92
wood 91
tall 91
ds 90
putting 90
aged 90
both 90
corner 90
volleyball 90
pushing 89
throwing 89
frisbee 89
2 89
view 89
have 88
slide 88
ladies 88
drink 88
between 88
public 87
laughing 87
computer 87
ling 86
instruments 86
flag 86
equipment 86
st@@ 86
sun 85
fish 85
bed 85
couch 85
pictures 85
bikes 85
g@@ 85
plastic 84
cowboy 84
ramp 84
party 84
which 83
way 83
playground 83
concrete 83
sweatshirt 83
poses 83
trail 83
woods 83
yard 83
b@@ 82
statue 82
sh@@ 82
beard 82
ts 82
dock 81
midair 81
winter 81
number 80
reads 80
just 80
skirt 79
seated 79
an@@ 79
school 79
distance 78
attire 77
six 77
toward 77
pe@@ 77
where 77
get 77
what 77
bags 77
sky 76
beer 76
works 76
left 76
ti@@ 76
p@@ 76
tent 76
cooking 76
al 75
cross 75
vests 75
cutting 75
filled 75
lined 75
rider 75
buildings 74
cream 74
pulling 74
al@@ 73
mother 73
di@@ 73
ro@@ 73
t@@ 73
un@@ 73
d 73
station 72
y@@ 72
skateboarder 72
crossing 72
cliff 72
friends 72
ting 72
appears 72
edge 71
showing 71
instrument 71
en@@ 71
spectators 71
mountains 71
few 71
bearded 70
horses 70
lo@@ 70
jersey 70
show 70
cars 70
court 70
art 69
nearby 69
right 69
scarf 69
performs 69
de@@ 69
dresses 69
make 69
king 69
driving 68
grill 68
concert 68
bowling 68
ps 68
carries 68
apron 68
net 68
perform 68
arts 68
k 68
box 68
snowboarder 68
fruit 67
ex@@ 67
shore 67
time 67
m@@ 67
leaves 67
painted 66
structure 66
coffee 66
cup 66
parked 66
vendor 66
flower 66
g 66
various 66
cigarette 66
boots 66
students 66
vehicle 65
gentleman 65
goggles 65
younger 65
i@@ 65
smile 65
shot 65
surfer 65
be@@ 64
bottle 64
eyes 64
flying 64
door 64
lit 64
martial 64
po@@ 64
drums 64
go 64
talks 64
ri@@ 64
smoking 64
rain 64
o 64
new 63
kicking 63
flags 63
rocky 63
home 63
bathing 63
no 63
hit 63
suits 63
li@@ 63
lying 63
der 63
waves 62
safety 62
pre@@ 62
paint 62
swinging 62
coming 62
newspaper 62
jackets 62
rodeo 62
prepares 62
indian 62
uses 62
se@@ 61
cake 61
conversation 61
la@@ 61
gather 61
different 61
parking 61
bucket 61
practicing 61
costumes 61
gloves 61
v@@ 61
ladder 60
cleaning 60
bunch 60
scene 60
competition 60
m 60
roof 60
f@@ 60
listening 60
hold 60
si@@ 60
l 60
le@@ 60
cement 60
er@@ 60
bull 60
son 59
wet 59
blanket 59
items 59
onlookers 59
3 59
skateboarding 59
staring 59
balloon 58
meal 58
pile 58
bikini 58
lawn 58
railing 58
audience 58
bicycles 58
giving 58
empty 58
ad@@ 58
desk 58
leaps 57
ar@@ 57
drinks 57
military 57
bu@@ 57
ping 57
sports 57
gets 57
hot 57
tie 56
bowl 56
sliding 56
gathering 56
bird 56
flip 56
display 56
can 56
vegetables 56
l@@ 56
pointing 56
class 55
i 55
wedding 55
facing 55
stop 55
ted 55
feet 55
streets 55
chasing 55
gold 55
biker 55
basket 55
before 55
competing 55
silver 54
ks 54
platform 54
at@@ 54
huge 54
helmets 54
speaking 54
mask 54
bride 53
tries 53
lights 53
match 53
surfing 53
ski 53
classroom 53
teams 53
purse 52
fighting 52
wait 52
climbs 52
father 52
seen 52
skier 52
alley 52
u@@ 52
traditional 52
pass 52
waits 52
sings 52
tu@@ 52
surfboard 52
place 52
marathon 52
do 51
ins 51
rail 51
kissing 51
counter 51
screen 51
animal 51
sing 51
musicians 51
su@@ 50
stroller 50
country 50
break 50
ter 50
happy 50
same 50
skating 50
females 50
w 49
hand@@ 49
walkway 49
ation 49
site 49
hole 49
shoulder 49
lap 49
kneeling 49
to@@ 49
ded 49
sunset 49
end 49
throw 49
runner 49
writing 49
talk 48
waving 48
c@@ 48
le 48
blowing 48
scooter 48
bald 48
christmas 48
ring 48
ve 48
ches 48
business 48
attempting 48
sort 48
violin 48
well 48
tables 47
e 47
overlooking 47
made 47
course 47
ra@@ 47
c 47
outfits 47
con@@ 47
th@@ 47
led 47
signs 47
ta@@ 46
urban 46
bubbles 46
r@@ 46
says 46
artist 46
chinese 46
officer 46
on@@ 46
mirror 46
life 46
close 46
giant 45
leans 45
balloons 45
fixing 45
st 45
am@@ 45
el@@ 45
brightly 45
cafe 45
les 45
base 45
alone 44
ating 44
swim 44
faces 44
teenage 44
brunette 44
helping 44
wheel 44
plate 44
leg 44
collar 44
foreground 44
gym 44
leather 44
umbrellas 44
skate 44
van 43
electric 43
mud 43
asleep 43
enjoy 43
sticks 43
el 43
clown 43
legs 43
meat 43
mo@@ 43
ated 43
dancers 43
h@@ 43
headphones 43
washing 42
sandals 42
golf 42
roller 42
among 42
swings 42
balls 42
makes 42
officers 42
office 42
diving 42
falling 42
stadium 42
passing 42
wears 42
n 42
multicolored 41
goal 41
snow@@ 41
ke 41
dirty 41
church 41
friend 41
toys 41
ked 41
barefoot 41
or@@ 41
hiking 41
musical 41
heads 41
ar 41
ate 41
ons 41
en 41
skiing 41
canoe 41
photographer 41
doorway 41
males 40
singer 40
it@@ 40
reaching 40
drawing 40
row 40
video 40
leash 40
mar@@ 40
per@@ 40
laptop 40
accordion 40
throws 40
over@@ 40
picking 40
traffic 40
cu@@ 39
below 39
z@@ 39
fla@@ 39
n@@ 39
move 39
shallow 39
members 39
relaxing 39
as@@ 39
daughter 39
performance 39
digging 39
ker 38
catching 38
ched 38
tunnel 38
moving 38
hugging 38
atop 38
car@@ 38
shovel 38
catches 38
sled 38
gives 38
cat 38
microscope 38
square 38
upside 38
deep 38
ac@@ 38
passes 38
foot 38
bicyclist 38
tattoo 37
sweeping 37
resting 37
prepare 37
lab 37
sleeps 37
ster 37
kick 37
co@@ 37
shows 37
garden 37
climb 37
cut 37
ma@@ 37
beige 37
ck 37
lone 37
vi@@ 37
paved 37
fun 37
bat 37
chef 37
drum 37
robe 37
leaping 37
stunt 37
flies 37
here 37
we@@ 36
hose 36
pond 36
sculpture 36
per 36
individuals 36
rolling 36
trunks 36
desert 36
karate 36
ls 36
wear 36
lots 36
hoodie 36
splashing 36
cold 36
conversing 36
teeth 36
coats 36
photograph 36
jogging 35
held 35
et 35
de 35
how 35
ste@@ 35
wrestling 35
customers 35
these 35
low 35
pier 35
gu@@ 35
telescope 35
eat 35
closed 35
town 35
round 35
formal 35
gun 35
se 35
points 35
underneath 35
tire 35
block 35
plants 35
shoe 35
local 34
mat 34
cane 34
do@@ 34
ying 34
head@@ 34
cyclist 34
opposing 34
themselves 34
project 34
without 34
gs 34
shoulders 34
b 34
sk@@ 34
carnival 34
als 34
dances 34
te@@ 34
hiker 34
waters 34
curly 34
ru@@ 34
ic 34
including 34
cloth 34
sts 34
circle 33
cre@@ 33
crosswalk 33
ch 33
straw 33
cor@@ 33
crying 33
pulled 33
hammer 33
infant 33
wooded 33
mural 33
ders 33
so@@ 33
ble 33
dinner 33
fight 33
tricks 33
trampoline 33
makeup 33
matching 33
ves 33
racket 33
hula 33
sc@@ 33
taken 33
produce 33
runners 33
stuffed 32
driver 32
picnic 32
gymnast 32
covering 32
booth 32
rest 32
ba@@ 32
sewing 32
pa@@ 32
knee 32
books 32
nose 32
pic@@ 32
bicyclists 32
athlete 32
br@@ 32
ous 32
trash 32
opening 32
hoop 32
che@@ 32
4 32
attempts 32
ws 32
performer 32
surface 32
em@@ 32
lays 31
tra@@ 31
boxes 31
blouse 31
himself 31
skis 31
hikers 31
sandy 31
softball 31
chases 31
et@@ 31
cow 31
cur@@ 31
lift 31
goes 31
back@@ 31
bar@@ 31
center 31
slope 31
balcony 31
sp@@ 31
teenagers 31
pushes 31
neck 31
lunch 31
help 31
pedestrians 31
me 31
third 31
us 31
oriental 31
cheerleaders 31
pitcher 31
not 30
staircase 30
puts 30
log 30
seven 30
turn 30
indoor 30
device 30
ch@@ 30
bent 30
pro@@ 30
pulls 30
festival 30
style 30
button 30
deck 30
speaks 30
kind 30
ho@@ 30
ined 29
overalls 29
evening 29
ans 29
boats 29
ce 29
wetsuit 29
ap@@ 29
heavy 29
gentlemen 29
enjoys 29
see 29
swims 29
ging 29
drives 29
ai@@ 29
shaking 29
golden 29
grocery 29
par@@ 29
fallen 29
marching 29
es@@ 29
ca@@ 29
dancer 29
gate 28
sheet 28
ler 28
pouring 28
kayak 28
nice 28
ledge 28
no@@ 28
jean 28
kicks 28
land 28
ship 28
porch 28
puddle 28
hi@@ 28
du@@ 28
ching 28
pot 28
protective 28
lies 28
type 28
stream 28
ter@@ 28
tracks 28
khaki 28
garb 28
fingers 28
birds 28
waterfall 28
wrapped 28
cloudy 28
he@@ 28
chi@@ 28
hangs 28
pping 28
&apos; 28
fe@@ 28
fair 28
mat@@ 28
shaving 28
robes 28
foreign 28
steep 28
ge@@ 28
native 28
clear 28
laundry 28
teenager 28
poles 27
j@@ 27
sale 27
paddling 27
wi@@ 27
ped 27
shoveling 27
dd@@ 27
reaches 27
try 27
bread 27
luggage 27
moves 27
eye 27
ates 27
blocks 27
ful 27
saxophone 27
man@@ 27
checking 27
opposite 27
attached 27
palm 27
backyard 27
sea 27
kes 27
put 27
arena 27
shooting 27
podium 27
soldiers 27
piano 27
colors 27
ment 27
pipe 27
airplane 27
age 27
il@@ 27
part 26
goalie 26
inflatable 26
ery 26
mound 26
clean 26
fenced 26
denim 26
curb 26
sun@@ 26
5 26
tops 26
wine 26
ings 26
tongue 26
sw@@ 26
string 26
wheelchair 26
ity 26
soldier 26
laugh 26
ir@@ 26
ning 26
balancing 26
raft 26
windows 26
cones 26
kiss 26
camouflage 26
poster 26
pavement 26
skirts 26
image 26
ag@@ 26
use 26
polo 26
ist 26
rugby 26
tractor 25
happily 25
color 25
courtyard 25
eats 25
seat 25
ely 25
shade 25
bikers 25
frame 25
swimsuit 25
ved 25
tools 25
railroad 25
fall 25
walls 25
keyboard 25
student 25
juggling 25
stool 25
floating 25
musician 25
is@@ 25
buying 25
step 25
york 25
pl@@ 25
post 25
laughs 25
sting 25
fresh 25
fast 25
stri@@ 25
fabric 25
skinned 25
ty 25
fans 25
motorcycles 25
married 25
bottom 25
flight 25
professional 25
ses 25
riders 25
sell 25
ic@@ 25
; 25
cyclists 25
qu@@ 24
you 24
backwards 24
plane 24
guard 24
pan@@ 24
scaffolding 24
carriage 24
dri@@ 24
cting 24
surf 24
cheering 24
pit 24
sized 24
plant 24
multiple 24
bubble 24
floral 24
ters 24
club 24
closeup 24
living 24
either 24
acoustic 24
inter@@ 24
garbage 24
bucking 24
pair 24
marketplace 24
tube 24
groom 24
appear 24
hurdle 24
socks 24
touching 24
nap 24
spray 24
suspended 24
dra@@ 24
mid 24
bo@@ 24
shown 24
bandanna 24
spi@@ 24
goods 24
santa 24
pajamas 24
jerseys 24
jo@@ 24
stove 23
me@@ 23
plaza 23
advertisement 23
kneels 23
magazine 23
dining 23
raised 23
underwater 23
hood 23
direction 23
escalator 23
climber 23
pen@@ 23
brush 23
animals 23
hooded 23
pri@@ 23
welding 23
caught 23
ally 23
japanese 23
backpacks 23
id 23
serving 23
ear 23
airport 23
des 23
dry 23
sleeved 23
op@@ 23
fi@@ 23
mi@@ 23
aring 23
sheep 23
german 23
sh 23
paints 23
go@@ 23
hay 23
landscape 23
towel 23
sta@@ 23
ears 23
chain 23
sporting 23
operating 22
neon 22
bun@@ 22
read 22
grilling 22
sol@@ 22
things 22
obstacle 22
cam@@ 22
vehicles 22
summer 22
mom 22
brushing 22
money 22
candy 22
gravel 22
seems 22
boards 22
scuba 22
participating 22
amusement 22
bending 22
pin@@ 22
action 22
rests 22
individual 22
shaped 22
good 22
checkered 22
tre@@ 22
thrown 22
! 22
can@@ 22
orchestra 22
polka 22
teacher 22
stre@@ 22
referee 22
caucasian 22
decorated 22
r 22
athletic 22
bow 22
sport 22
sted 22
examining 22
pu@@ 22
bmx 22
ropes 21
barbecue 21
atv 21
map 21
crouches 21
tub 21
sweat@@ 21
firefighters 21
fl@@ 21
ish 21
print 21
ming 21
ger 21
passengers 21
gr@@ 21
act 21
cking 21
rowing 21
min@@ 21
benches 21
peace 21
water@@ 21
harness 21
stra@@ 21
compete 21
attempt 21
jungle 21
hitting 21
turning 21
win@@ 21
half 21
cone 21
feeding 21
apple 21
pen 21
heels 21
muddy 21
bri@@ 21
hallway 21
fly 21
only 21
om@@ 21
ered 21
wide 21
practice 21
tourists 21
chest 21
haircut 21
studio 21
presentation 21
photographs 21
ne@@ 21
sharing 21
sticking 21
wagon 21
sets 21
ght 21
opponent 21
hel@@ 21
bro@@ 21
model 21
racer 21
also 20
machinery 20
dis@@ 20
tri@@ 20
she@@ 20
ens 20
hall 20
pull 20
ously 20
snowboard 20
h 20
garage 20
but 20
cleans 20
fruits 20
sed 20
tw@@ 20
( 20
ke@@ 20
eight 20
tile 20
sandwich 20
jumpsuit 20
bs 20
ci@@ 20
carpet 20
motocross 20
ats 20
groups 20
stones 20
figure 20
mustache 20
te 20
motorcyclist 20
navy 20
we 20
snowboarding 20
wire 20
craft 20
bars 20
patio 20
racetrack 20
skateboards 20
sa@@ 20
tool 20
sink 20
pos@@ 20
policeman 20
im@@ 20
headscarf 20
drummer 20
speech 20
ering 20
bathroom 20
bles 20
els 20
sco@@ 20
turns 20
boun@@ 20
chase 20
guitars 20
viewing 20
start 20
est 20
ops 20
stru@@ 20
bushes 19
entrance 19
bi@@ 19
ars 19
beam 19
our 19
ol@@ 19
lane 19
squ@@ 19
intersection 19
boardwalk 19
discussion 19
ceiling 19
sm@@ 19
cted 19
baskets 19
swimmer 19
routine 19
ies 19
ear@@ 19
) 19
lar 19
fancy 19
rough 19
museum 19
observe 19
beverage 19
stopped 19
narrow 19
coach 19
bath 19
petting 19
tag 19
great 19
indoors 19
shoot 19
cape 19
dune 19
tents 19
eling 19
out@@ 19
lay 19
hillside 19
cha@@ 19
clo@@ 19
slides 19
ahead 19
eastern 19
college 19
neighborhood 19
puck 19
crouching 19
gar@@ 19
first 19
av@@ 19
tattooed 19
possibly 19
leaving 19
herself 19
smoke 19
cricket 19
trumpet 19
medical 19
vendors 19
horseback 19
sells 19
ets 18
rubber 18
flo@@ 18
wing 18
song 18
ary 18
sword 18
mixing 18
bas@@ 18
mall 18
bur@@ 18
cla@@ 18
folding 18
card 18
tor@@ 18
helps 18
pi@@ 18
hospital 18
hang 18
container 18
buy 18
fencing 18
cra@@ 18
clay 18
ni@@ 18
wheels 18
cru@@ 18
tro@@ 18
celebrating 18
birthday 18
coun@@ 18
squatting 18
ati@@ 18
wa@@ 18
pick 18
py 18
ornate 18
youth 18
uniformed 18
cardboard 18
pieces 18
outstretched 18
ss 18
protest 18
shepherd 18
ss@@ 18
bottles 18
puppy 18
ical 18
guitarist 18
hoops 18
ned 18
live 18
hugs 18
army 18
com@@ 18
choir 18
funny 18
wh@@ 18
cr@@ 18
dishes 18
enterta@@ 18
blow 18
seats 18
buckets 18
maroon 18
mostly 18
gi@@ 18
sleeve 18
bl@@ 18
vely 18
met@@ 18
heart 18
skates 18
microphones 18
tr@@ 17
reflective 17
balance 17
gro@@ 17
member 17
flipping 17
doctor 17
pan 17
farm 17
stack 17
ribbon 17
handstand 17
cuts 17
derby 17
dreadlocks 17
leading 17
apartment 17
ad 17
bank 17
flops 17
il 17
sleeveless 17
backs 17
lan@@ 17
fisherman 17
space 17
ver 17
wife 17
stroll 17
ver@@ 17
stretching 17
mobile 17
nets 17
doors 17
rink 17
excited 17
bear 17
rural 17
blows 17
gra@@ 17
spraying 17
gh@@ 17
vegetable 17
ages 17
firetruck 17
free 17
cts 17
bowls 17
pine 17
more 17
position 17
belt 17
pat@@ 17
ast 17
lines 17
item 17
grinding 17
ethnic 17
moment 17
tattoos 17
conference 17
float 17
mohawk 17
stripes 17
stares 17
run@@ 17
library 17
x 17
got 17
inspecting 17
f 17
finish 17
calf 17
her@@ 17
broom 17
coloring 17
ry 17
tourist 17
smokes 17
spinning 17
finger 17
vers 17
jockey 17
th 17
ct 17
scenery 17
furniture 17
hair@@ 17
storefront 17
boxing 17
skaters 17
tied 16
broken 16
factory 16
candles 16
duck 16
approaching 16
intently 16
batter 16
col@@ 16
ber@@ 16
chefs 16
gas 16
chalk 16
pers 16
blo@@ 16
pped 16
spread 16
odd 16
ju@@ 16
gg@@ 16
crane 16
castle 16
parents 16
discussing 16
&amp; 16
ge 16
crew 16
emergency 16
but@@ 16
shed 16
motorbike 16
barrel 16
houses 16
dish 16
raises 16
fluffy 16
cap@@ 16
tur@@ 16
tle 16
horn 16
warm 16
hotel 16
folded 16
mu@@ 16
balding 16
snack 16
name 16
banner 16
starting 16
bass 16
computers 16
pizza 16
bling 16
lamp 16
balances 16
for@@ 16
gre@@ 16
ines 16
fix 16
nighttime 16
television 16
jewelry 16
kite 16
pe 16
partially 16
keep 16
theater 16
stairway 16
overhead 16
plates 16
ns 16
ave 16
dead 16
following 16
fully 16
reach 16
ff@@ 16
ys 16
ward 16
turned 16
dle 16
gymnasium 16
rainy 16
carving 16
pitch 16
sides 16
comfor@@ 16
pigeons 16
dimly 16
sofa 16
swe@@ 16
london 16
lifting 16
objects 16
ck@@ 16
clad 16
surrounding 16
naked 16
0@@ 16
speed 16
sand@@ 16
listens 16
war 16
1 16
moped 16
sty@@ 16
end@@ 15
rainbow 15
wn 15
shovels 15
hits 15
smo@@ 15
training 15
security 15
trucks 15
engine 15
elephant 15
wr@@ 15
numerous 15
flowered 15
lin@@ 15
push 15
unicycle 15
ms 15
fro@@ 15
carry 15
ak 15
lounging 15
cle@@ 15
trailer 15
directions 15
ties 15
form@@ 15
wed 15
amongst 15
seas@@ 15
swimmers 15
control 15
cal@@ 15
tee 15
redheaded 15
called 15
protesting 15
sters 15
gri@@ 15
participate 15
ner 15
catcher 15
1@@ 15
ard 15
taxi 15
branch 15
pottery 15
hun@@ 15
raising 15
terrain 15
repair 15
wrestle 15
ces 15
ture 15
lu@@ 15
shaved 15
necklace 15
downtown 15
teammate 15
come 15
engaged 15
headband 15
observing 15
forward 15
material 15
smaller 15
thin 15
ant 15
barber 15
follows 15
air@@ 15
newborn 15
photos 15
electronic 15
patient 15
fan 15
star 15
ballerina 15
assi@@ 15
present 15
bat@@ 15
fireman 15
village 15
ace 15
hol@@ 15
liquid 15
&apos;t 15
advertising 15
mer@@ 15
crosses 15
relax 15
bare 15
bla@@ 15
wings 15
papers 15
ine 15
beneath 15
shades 15
gli@@ 14
converse 14
shakes 14
whilst 14
binoculars 14
dr@@ 14
gers 14
billboard 14
3@@ 14
steel 14
ges 14
biking 14
donkey 14
part@@ 14
silly 14
skiers 14
eds 14
repairs 14
ig@@ 14
caps 14
story 14
job 14
colle@@ 14
loading 14
ess 14
cook 14
athletes 14
fake 14
nature 14
shining 14
shops 14
teaching 14
ill 14
book@@ 14
ors 14
spon@@ 14
ining 14
my 14
angel 14
weaving 14
scarves 14
casual 14
share 14
tower 14
cobblestone 14
trunk 14
firemen 14
dough 14
um@@ 14
wading 14
plu@@ 14
stu@@ 14
calm 14
falls 14
por@@ 14
splashes 14
char@@ 14
instru@@ 14
interacting 14
guns 14
straight 14
off@@ 14
gift 14
cards 14
machines 14
upon 14
receiving 14
hu@@ 14
ow@@ 14
most 14
stomach 14
peering 14
slightly 14
ent 14
har@@ 14
modern 14
hug 14
cameras 14
crafts 14
lounge 14
shel@@ 14
airborne 14
pretty 14
guards 14
pillow 14
cool 14
sprinkler 14
passenger 14
photographed 14
stic 14
glove 14
leads 14
aisle 14
camel 14
rollerblades 14
sl@@ 14
races 14
ail 14
sho@@ 14
corn 14
world 14
homeless 14
performers 14
grand@@ 14
admiring 14
ue 14
observes 13
spotted 13
studying 13
am 13
ur@@ 13
brea@@ 13
ou@@ 13
tropical 13
eye@@ 13
teen 13
paddles 13
tending 13
ten@@ 13
dusk 13
lers 13
bre@@ 13
motor 13
knit 13
saw 13
chainsaw 13
check 13
pit@@ 13
laptops 13
customer 13
messy 13
carts 13
til@@ 13
wheelbarrow 13
tail 13
landing 13
wor@@ 13
spoon 13
waterway 13
thumbs 13
cans 13
up@@ 13
ian 13
tires 13
science 13
order 13
ction 13
oven 13
dy 13
iner 13
burgundy 13
dro@@ 13
sau@@ 13
coaster 13
examines 13
debris 13
farmer 13
eggs 13
let 13
bin 13
fle@@ 13
praying 13
rod 13
skater 13
sal@@ 13
pur@@ 13
sack 13
been 13
leaf 13
flips 13
dol@@ 13
attention 13
compet@@ 13
autumn 13
ged 13
fa@@ 13
hum@@ 13
case 13
drill 13
was 13
flute 13
if 13
form 13
filling 13
rows 13
places 13
target 13
lit@@ 13
ator 13
dad 13
bystanders 13
consisting 13
ssed 13
ger@@ 13
ement 13
care 13
wal@@ 13
cups 13
checks 13
entering 13
cl@@ 13
groceries 13
greyhound 13
bag@@ 13
telephone 13
ants 13
2@@ 13
barrier 13
waterfront 13
cro@@ 13
official 13
tow@@ 13
comes 13
pla@@ 13
ceremony 13
meeting 13
bath@@ 13
similar 13
paddle 13
cheer 13
bleachers 13
8 13
overweight 13
au@@ 13
tea 13
sailing 13
semi 13
cked 13
dge 13
keys 13
ill@@ 13
browsing 13
headed 13
sneakers 13
tion 13
lead 13
gestures 13
lacrosse 13
ballet 12
pow@@ 12
kno@@ 12
wild 12
scra@@ 12
bamboo 12
bricks 12
pigtails 12
scooters 12
onal 12
paperwork 12
ven 12
sen@@ 12
iron 12
sto@@ 12
hur@@ 12
chicken 12
load 12
give 12
boulder 12
doll 12
presenting 12
wires 12
hap@@ 12
gging 12
rickshaw 12
pad@@ 12
clapping 12
cool@@ 12
vil 12
cello 12
acks 12
exhibit 12
teal 12
covers 12
ze 12
heading 12
puppies 12
diver 12
gymnastics 12
shadows 12
tired 12
jet 12
screaming 12
cooks 12
merchandise 12
fri@@ 12
show@@ 12
cks 12
countryside 12
blankets 12
na@@ 12
mes 12
texas 12
newly 12
seem 12
mes@@ 12
touches 12
games 12
highway 12
pack 12
beanie 12
cowboys 12
ized 12
bite 12
dust 12
shoppers 12
repairing 12
dering 12
placing 12
tray 12
bagpipes 12
wares 12
alleyway 12
organ@@ 12
handing 12
visiting 12
patterned 12
tv 12
loom 12
knife 12
spanish 12
stare 12
listen 12
drive 12
serves 12
wrap 12
motor@@ 12
still 12
pillows 12
ite 12
rollerblading 12
ve@@ 12
inspects 12
stops 12
suitcase 12
let@@ 12
ban@@ 12
tal 12
lifted 12
sweeps 12
newspapers 12
sele@@ 12
complete 12
tossing 12
forehead 12
so 12
tackle 12
kers 12
vie@@ 12
olympics 12
ently 12
movie 12
ple@@ 12
lecture 12
exercise 12
acking 12
ny 12
ral 12
knees 12
attending 12
monument 12
biting 12
tape 12
stat@@ 12
beverages 12
wheelie 12
6 12
applying 12
umpire 12
juice 12
shirted 12
yoga 12
ics 12
wrestler 12
kayaks 12
snowsuit 12
ence 11
artwork 11
wind@@ 11
patch 11
camping 11
trip 11
picks 11
foot@@ 11
lighted 11
fire@@ 11
magazines 11
assembl@@ 11
tal@@ 11
fashioned 11
ky 11
cheek 11
hut 11
grou@@ 11
suspenders 11
learning 11
pilot 11
medium 11
shoreline 11
wning 11
dusty 11
late 11
re 11
soda 11
coo@@ 11
sn@@ 11
traveling 11
ph@@ 11
underwear 11
bow@@ 11
chan@@ 11
placed 11
rub@@ 11
ack 11
burning 11
injured 11
arcade 11
adjusting 11
yel@@ 11
pr@@ 11
maneu@@ 11
range 11
tin@@ 11
formation 11
ways 11
banjo 11
rapids 11
ponytail 11
larger 11
firefighter 11
arch 11
cal 11
logs 11
chatting 11
carefully 11
far 11
chess 11
dj 11
tan@@ 11
mop 11
washer 11
lips 11
kayaking 11
china 11
teens 11
ent@@ 11
oning 11
war@@ 11
tiny 11
wel@@ 11
printed 11
rollerskating 11
work@@ 11
backdrop 11
swimsuits 11
strange 11
played 11
tricycle 11
laundromat 11
don@@ 11
dire@@ 11
creek 11
auditorium 11
location 11
sunlight 11
speak 11
ately 11
bit 11
record 11
department 11
rice 11
ced 11
posed 11
gathers 11
bel@@ 11
poor 11
khakis 11
dles 11
ations 11
tug 11
weather 11
floats 11
thin@@ 11
uni@@ 11
finished 11
parachute 11
oned 11
the@@ 11
da@@ 11
yarn 11
cycling 11
motorcyclists 11
practices 11
watched 11
turquoise 11
descent 11
venue 11
fer@@ 11
dives 11
opens 11
company 11
planting 11
sses 11
fli@@ 11
passersby 11
crouched 11
mug 11
.@@ 11
sail@@ 11
scouts 11
asians 11
salon 11
zes 11
viol@@ 11
visible 11
tights 11
snowshoes 11
stoc@@ 11
lifts 11
cage 11
playfully 11
mower 11
tackling 11
os 11
ion 11
recei@@ 11
involved 11
touch 11
dot 11
recl@@ 11
roun@@ 11
rally 11
nail 11
able 11
meet 11
point 11
mil@@ 11
done 11
motorized 11
crossed 11
couples 11
celebration 11
surgery 11
trolley 11
supplies 11
second 11
fashion 11
closely 11
defen@@ 11
drawn 11
focused 11
torch 11
2012 11
play@@ 10
slo@@ 10
ber 10
toddlers 10
rooftop 10
frozen 10
march 10
spe@@ 10
thing 10
tribal 10
nurses 10
shes 10
helicopter 10
handrail 10
mexican 10
ong 10
thumb 10
ands 10
maintenance 10
fre@@ 10
tch 10
tel@@ 10
trashcan 10
branches 10
washes 10
secu@@ 10
appar@@ 10
leap 10
stilts 10
sive 10
monitor 10
belts 10
demonstr@@ 10
pins 10
walked 10
super@@ 10
creating 10
ele@@ 10
quickly 10
stepping 10
chopping 10
john 10
experiment 10
od 10
ctor 10
sion 10
located 10
fac@@ 10
asia 10
serve 10
racers 10
stor@@ 10
morning 10
coa@@ 10
cri@@ 10
wer 10
silhouette 10
dled 10
nu@@ 10
earphones 10
sprayed 10
roadside 10
furry 10
dar@@ 10
hiding 10
lem@@ 10
brother 10
goat 10
pon@@ 10
oms 10
lens 10
pots 10
driveway 10
emer@@ 10
rafting 10
displays 10
pin 10
cloth@@ 10
sculp@@ 10
quarterback 10
gaze 10
twir@@ 10
cloud 10
scaffold 10
chalkboard 10
portrait 10
whom 10
storm 10
excit@@ 10
blood 10
cel@@ 10
ils 10
involving 10
pads 10
ads 10
fr@@ 10
ards 10
speaker 10
cop 10
decorative 10
stroke 10
transportation 10
canvas 10
laden 10
america 10
activity 10
denti@@ 10
vis@@ 10
la 10
cyc@@ 10
contraption 10
facility 10
upward 10
shape 10
workshop 10
workout 10
leotard 10
juggles 10
hotdog 10
link 10
top@@ 10
fur 10
lobby 10
peeking 10
tain 10
finishing 10
mul@@ 10
ti 10
fo@@ 10
headdress 10
gazes 10
casually 10
dies 10
apart 10
laun@@ 10
oping 10
oranges 10
floo@@ 10
9@@ 10
process 10
fu@@ 10
single 10
ath@@ 10
bouquet 10
cat@@ 10
incline 10
row@@ 10
gallery 10
collared 10
# 10
displaying 10
approaches 10
scre@@ 10
cute 10
hike 10
leggings 10
kings 10
amidst 10
valley 10
will 10
kit@@ 10
tes 10
ol 10
sideways 10
embracing 10
cheese 10
numbers 10
surfs 10
celebrate 10
shing 10
products 10
dun@@ 10
lighting 10
cover 10
blazer 10
decor@@ 10
lion 9
sprink@@ 9
road@@ 9
gazing 9
almost 9
dive 9
shar@@ 9
bends 9
oper@@ 9
wo@@ 9
wea@@ 9
spar@@ 9
classic 9
regi@@ 9
ski@@ 9
stoop 9
wheeler 9
cast 9
types 9
strolls 9
decorations 9
black@@ 9
shoe@@ 9
kilt 9
jogs 9
paint@@ 9
pale 9
cli@@ 9
operates 9
elmo 9
sur@@ 9
hills 9
employees 9
aprons 9
service 9
highchair 9
stall 9
camp 9
adjusts 9
ound 9
booths 9
farmers 9
section 9
reflection 9
mon@@ 9
task 9
cab@@ 9
boarding 9
foliage 9
bicycling 9
pathway 9
gardening 9
painter 9
horizon 9
clouds 9
sniffing 9
acting 9
joy 9
tiled 9
pet 9
breakdancing 9
sparring 9
attractive 9
bor@@ 9
upset 9
scar@@ 9
waist 9
raincoat 9
fier 9
french 9
ha@@ 9
gradu@@ 9
sym@@ 9
brass 9
strapped 9
tags 9
grabbing 9
design 9
containing 9
hor@@ 9
handle 9
cherry 9
cab 9
cellphones 9
yo 9
med@@ 9
jeep 9
green@@ 9
pinata 9
unhappy 9
concentr@@ 9
sorting 9
sure 9
mark 9
fin@@ 9
draw 9
mechan@@ 9
bouncing 9
brushes 9
pumpkin 9
wind 9
tted 9
tripod 9
shiny 9
wait@@ 9
scenic 9
pencil 9
cola 9
ang@@ 9
chocolate 9
spark@@ 9
ance 9
tered 9
checkers 9
fishes 9
featuring 9
sawing 9
odles 9
ashes 9
handed 9
sli@@ 9
hind 9
butterfly 9
opy 9
tournament 9
gesturing 9
really 9
beret 9
crowds 9
ven@@ 9
treat 9
dragging 9
dumpster 9
aid 9
fell 9
interesting 9
bul@@ 9
drib@@ 9
motion 9
built 9
des@@ 9
peer 9
eag@@ 9
crates 9
ham@@ 9
chewing 9
east 9
ty@@ 9
fair@@ 9
photograph@@ 9
soap 9
than 9
hal@@ 9
arm@@ 9
displayed 9
atm 9
gy 9
sledding 9
acti@@ 9
chopsticks 9
news 9
lea@@ 9
monkey 9
cer@@ 9
menu 9
dding 9
jumped 9
diner 9
ticket 9
icy 9
images 9
dan@@ 9
oc@@ 9
sad 9
writes 9
rings 9
stump 9
thers 9
known 9
stance 9
rac@@ 9
circular 9
turban 9
potato 9
designs 9
remo@@ 9
pattern 9
ducks 9
pain 9
muzzle 9
afternoon 9
tter 9
grabs 9
ach 9
tight 9
sprin@@ 9
med 9
belongings 9
que@@ 9
hudd@@ 9
trench 9
love 9
4@@ 9
stacked 9
hear@@ 9
ser 9
parasailing 9
tex@@ 9
ili@@ 9
cleaner 9
tips 9
pes 9
sha@@ 9
muzzled 9
religious 9
stic@@ 9
olympic 9
begins 9
ser@@ 9
ten 9
ram@@ 9
protesters 9
boxer 9
unique 9
heavily 9
jumper 9
lish 9
wig 9
score 9
riot 9
sle@@ 9
rifle 9
egg 9
recording 9
power 9
sel 9
bathtub 9
digital 9
exten@@ 9
canadian 9
packing 8
barefooted 8
ple 8
illing 8
down@@ 8
0 8
much 8
too 8
forested 8
communic@@ 8
fat 8
scrubs 8
thered 8
napping 8
darkened 8
conta@@ 8
pony 8
cul@@ 8
iling 8
free@@ 8
teammates 8
fun@@ 8
somewhere 8
sea@@ 8
strolling 8
cries 8
ka@@ 8
surgical 8
spins 8
plain 8
had 8
buil@@ 8
skills 8
redhead 8
transit 8
amount 8
vending 8
labeled 8
bal@@ 8
ments 8
cluttered 8
hammock 8
ones 8
shaggy 8
marble 8
masks 8
shelf 8
cing 8
splashed 8
waiter 8
staff 8
stuff 8
parent 8
stuck 8
mic 8
companion 8
stretches 8
raining 8
hawaiian 8
hau@@ 8
arr@@ 8
loo@@ 8
hydrant 8
campfire 8
draped 8
ca 8
ffs 8
lowing 8
jack@@ 8
spot 8
fore@@ 8
fil@@ 8
serv@@ 8
shadow 8
midst 8
synchronized 8
skinny 8
nic@@ 8
casino 8
squeezing 8
league 8
suit@@ 8
cases 8
mix@@ 8
say 8
rug 8
af@@ 8
ppy 8
cs 8
co 8
sof@@ 8
underground 8
explor@@ 8
protect 8
flannel 8
downhill 8
variety 8
projector 8
shy 8
won@@ 8
punch 8
purses 8
toil@@ 8
package 8
hit@@ 8
mix 8
sailboat 8
accident 8
uts 8
artists 8
signing 8
gen@@ 8
lay@@ 8
candle 8
times 8
colorfully 8
travel 8
spir@@ 8
wheeled 8
directing 8
lively 8
even 8
halloween 8
fountains 8
ior 8
u 8
pocket 8
buried 8
because 8
conver@@ 8
hou@@ 8
banners 8
cheerleading 8
ess@@ 8
congreg@@ 8
canoes 8
bra 8
vac@@ 8
gown 8
ase 8
musta@@ 8
bundle 8
stringed 8
mess 8
judges 8
foam 8
retrie@@ 8
ving 8
babies 8
easel 8
beads 8
peers 8
filming 8
walmart 8
ically 8
harmonica 8
crayons 8
monopoly 8
skies 8
unusual 8
aqua 8
warehouse 8
mb@@ 8
photographers 8
izing 8
lanterns 8
daytime 8
tying 8
bridesmaids 8
must@@ 8
laboratory 8
angle 8
completed 8
cit@@ 8
lon@@ 8
sprays 8
industrial 8
european 8
camels 8
chis@@ 8
homemade 8
vintage 8
when 8
pours 8
spring 8
conductor 8
medi@@ 8
win 8
notebook 8
muscular 8
mixer 8
ingly 8
coca 8
nee@@ 8
batman 8
grand 8
arch@@ 8
hispanic 8
street@@ 8
looked 8
tackled 8
hardwood 8
establishment 8
abandoned 8
clowns 8
ran@@ 8
columns 8
trains 8
state 8
voc@@ 8
foods 8
speci@@ 8
peac@@ 8
tuxe@@ 8
gesture 8
fol@@ 8
kn@@ 8
product 8
kisses 8
rou@@ 8
graffit@@ 8
india 8
grab 8
hammering 8
commercial 8
kaya@@ 8
11 8
thou@@ 8
dly 8
speeding 8
notes 8
employee 8
deer 8
kee@@ 8
ise 8
bedroom 8
figures 8
spotlight 8
every@@ 8
break@@ 8
acrobatic 8
deci@@ 8
ki@@ 8
nails 8
bra@@ 8
antly 8
din@@ 8
aquarium 8
toothbrush 8
draws 8
ind 8
str@@ 8
tour 8
packed 8
tic 8
bartender 8
crashing 8
create 8
vo@@ 8
5@@ 8
waterskiing 8
destination 8
- 8
enthusia@@ 8
doesn 8
fields 8
followed 8
cti@@ 8
jockeys 8
itive 8
loaded 8
murky 8
victory 8
pay 8
navigates 8
carrier 8
canal 8
cigar 8
histor@@ 8
ja@@ 8
bly 8
human 8
int 8
act@@ 8
europe 8
finger@@ 8
ents 8
series 8
v 8
obser@@ 8
op 8
tro 7
slacks 7
husband 7
mcdonald 7
shiel@@ 7
hotdogs 7
ascen@@ 7
though 7
supermarket 7
meadow 7
crops 7
main 7
ths 7
railings 7
some@@ 7
ddles 7
arri@@ 7
tubes 7
rustic 7
starring 7
frying 7
woodland 7
barbecu@@ 7
ols 7
adorned 7
workman 7
completing 7
trophy 7
nude 7
mouths 7
written 7
may 7
bush 7
fork 7
complex 7
rs 7
res 7
squir@@ 7
mers 7
lush 7
stores 7
puppet 7
shi@@ 7
visor 7
cotton 7
&apos;@@ 7
find 7
mitt 7
feather 7
facial 7
shift 7
irs 7
intervie@@ 7
trotting 7
melon 7
thick 7
mascot 7
hoe 7
fog 7
rest@@ 7
patrons 7
snacks 7
multi@@ 7
vering 7
prints 7
beating 7
apples 7
resort 7
dum@@ 7
gui@@ 7
own 7
mowing 7
shu@@ 7
desks 7
crawls 7
earth 7
ggling 7
legged 7
videota@@ 7
elder 7
exhib@@ 7
ition 7
ators 7
policemen 7
conducting 7
purchase 7
ingredients 7
tracksuit 7
nun 7
radio 7
9 7
dryer 7
skyline 7
pie 7
jack 7
ician 7
shine 7
aving 7
refle@@ 7
environment 7
hore 7
flu@@ 7
mountainous 7
divers 7
gh 7
zone 7
pointed 7
jenga 7
stry 7
ker@@ 7
ef 7
level 7
sit@@ 7
attenti@@ 7
call 7
itors 7
laid 7
roller@@ 7
separate 7
berry 7
measuring 7
pans 7
beat 7
pad 7
rugs 7
support 7
collie 7
ok 7
tablecloth 7
ash@@ 7
slic@@ 7
inging 7
foggy 7
vacuum 7
stripe 7
beers 7
eng@@ 7
picket 7
demonstration 7
bongo 7
gged 7
fuzzy 7
pper 7
ctions 7
pirate 7
mas@@ 7
cheerleader 7
fort 7
contro@@ 7
deli@@ 7
advertisements 7
were 7
shawl 7
roll 7
die 7
watermelons 7
ends 7
pack@@ 7
presents 7
illuminated 7
shower 7
blower 7
snork@@ 7
buffet 7
punching 7
peaks 7
social 7
parachu@@ 7
aps 7
maybe 7
contest 7
turkey 7
eled 7
zi@@ 7
pigeon 7
casting 7
gal@@ 7
discuss 7
cigarettes 7
usa 7
bounds 7
pum@@ 7
rolls 7
electr@@ 7
cameraman 7
harbor 7
bananas 7
guide 7
tarp 7
side@@ 7
begin 7
monk 7
pop 7
spo@@ 7
crosscountry 7
rise 7
squats 7
gor@@ 7
newlywed 7
sil@@ 7
warming 7
arrow 7
arti@@ 7
marked 7
cker 7
barrels 7
ital@@ 7
gla@@ 7
surfers 7
seafood 7
fying 7
releas@@ 7
barely 7
ddle 7
treadmill 7
sold 7
ste 7
dyed 7
land@@ 7
sca@@ 7
ab@@ 7
exercising 7
leopard 7
rafts 7
sin@@ 7
icker 7
activities 7
logo 7
sad@@ 7
monitors 7
temple 7
rails 7
oil 7
flock 7
att@@ 7
battle 7
dal@@ 7
silhouetted 7
cave 7
chun@@ 7
open@@ 7
chased 7
quet 7
reception 7
deli 7
fedora 7
low@@ 7
ce@@ 7
quiet 7
bows 7
wash 7
tack@@ 7
vibrant 7
daily 7
examine 7
ff 7
named 7
ara@@ 7
ese 7
fetch 7
plan@@ 7
backseat 7
entertain 7
seating 7
dinosaur 7
strings 7
cannon 7
elementary 7
wilderness 7
accompanied 7
return 7
greyhounds 7
tutu 7
ots 7
trans@@ 7
marker 7
? 7
bum@@ 7
exiting 7
pops 7
glo@@ 7
character 7
ites 7
topless 7
sunbathing 7
mounted 7
fill 7
fet@@ 7
wil@@ 7
disc 7
gry 7
are@@ 7
fireworks 7
tress 7
blu@@ 7
chil@@ 7
grinds 7
vaul@@ 7
typing 7
dotted 7
licking 7
british 7
om 7
tails 7
fron@@ 7
pro 7
striking 7
tiger 7
poodle 7
broad 7
crow@@ 7
skydiving 7
je@@ 7
celebr@@ 7
medieval 7
sac@@ 7
tow 7
ales 7
framed 7
nine 7
drying 7
chin 7
await 7
past@@ 7
colli@@ 7
pou@@ 7
ultimate 7
year 7
lands 7
armo@@ 7
designed 7
confu@@ 7
characters 7
pyramid 7
vacuuming 7
sleeves 7
necklaces 7
ordering 7
xe 7
tured 7
7 7
blurred 7
8@@ 7
dre@@ 7
lining 7
xylophone 7
amid 7
holi@@ 7
wrestlers 7
scientist 7
doctors 7
dolls 7
weight 7
travels 7
speeds 7
sidelines 7
rollerskates 7
snowboards 7
bend 7
fiel@@ 7
fellow 7
sor@@ 7
dec@@ 7
cathedral 7
prepared 7
6@@ 7
profession@@ 7
cover@@ 7
ash 7
mini 7
confetti 7
chu@@ 7
upwards 7
sculptures 7
hoo@@ 7
defender 7
pul@@ 6
ley 6
system 6
dered 6
clarin@@ 6
seesa@@ 6
olive 6
climbers 6
soars 6
trave@@ 6
amu@@ 6
ath 6
shake 6
rubs 6
javelin 6
four@@ 6
feathered 6
ress 6
fill@@ 6
spatula 6
val 6
cardigan 6
scooping 6
gap 6
muslim 6
elevated 6
coast 6
briefcase 6
slopes 6
canyon 6
ight 6
clu@@ 6
bib 6
zoo 6
sear@@ 6
ot 6
bottoms 6
watering 6
fen@@ 6
drum@@ 6
probably 6
terrier 6
dragon 6
rush 6
weapon 6
cart@@ 6
pets 6
maj@@ 6
spots 6
checked 6
grills 6
elaborate 6
person@@ 6
ners 6
gin@@ 6
hour 6
crash@@ 6
gol@@ 6
bb@@ 6
ills 6
propped 6
expanse 6
exper@@ 6
stirring 6
miniature 6
favorite 6
inspe@@ 6
waterskier 6
heavyset 6
tends 6
talent 6
evil 6
fer 6
ther 6
fam@@ 6
lou@@ 6
nap@@ 6
flat 6
craw@@ 6
wrap@@ 6
teddy 6
hook 6
sunshine 6
barriers 6
swords 6
tomatoes 6
pipes 6
raking 6
pee@@ 6
stati@@ 6
onary 6
scaling 6
rimmed 6
goatee 6
paci@@ 6
lime 6
stunts 6
less 6
ner@@ 6
ul@@ 6
mates 6
within 6
wineglasses 6
gger 6
relaxes 6
eks 6
stretched 6
strike 6
oming 6
infla@@ 6
convention 6
farm@@ 6
whis@@ 6
bones 6
ravine 6
tly 6
surf@@ 6
boarder 6
crash 6
information 6
blind@@ 6
woven 6
length 6
and@@ 6
dots 6
renaissance 6
gues 6
skull 6
strollers 6
ka 6
lanes 6
snowball 6
spre@@ 6
nes@@ 6
efs 6
volunte@@ 6
submer@@ 6
arrangement 6
nightclub 6
domin@@ 6
inning 6
flowery 6
knitting 6
pitching 6
personnel 6
acked 6
tomat@@ 6
riverbank 6
shingles 6
words 6
cally 6
expression 6
pillar 6
curi@@ 6
merry 6
grasping 6
raise 6
bowtie 6
zing 6
occur@@ 6
blocking 6
shorter 6
clap 6
mouse 6
texting 6
ro 6
girl@@ 6
bloc@@ 6
rack 6
plank 6
overlook 6
self 6
sample 6
licks 6
razor 6
socializing 6
recor@@ 6
na 6
pushed 6
professor 6
sno@@ 6
wash@@ 6
weigh@@ 6
citizens 6
instal@@ 6
fresh@@ 6
ily 6
tor 6
der@@ 6
desc@@ 6
del@@ 6
crate 6
identical 6
cable 6
fts 6
hop@@ 6
lovely 6
mountaintop 6
noses 6
damaged 6
bodysuit 6
upright 6
boxers 6
dropping 6
spla@@ 6
cin@@ 6
ader 6
glacier 6
handbag 6
relay 6
mittens 6
subur@@ 6
ban 6
warm@@ 6
badge 6
wraps 6
pil@@ 6
soup 6
liquor 6
sty 6
pid@@ 6
harvesting 6
operated 6
swam@@ 6
capped 6
superman 6
scrat@@ 6
alli@@ 6
ize 6
tau@@ 6
scape 6
whistle 6
flames 6
magni@@ 6
jewish 6
cer 6
scantily 6
those 6
ghts 6
butcher 6
brooms 6
dump 6
pelling 6
gloved 6
wri@@ 6
of@@ 6
poun@@ 6
belly 6
rag 6
day@@ 6
trimm@@ 6
appe@@ 6
bronco 6
hunched 6
husky 6
sleep 6
cats 6
moo@@ 6
ob@@ 6
beams 6
indi@@ 6
squad 6
somebody 6
crown 6
wn@@ 6
microscopes 6
sundress 6
nati@@ 6
shouting 6
rolled 6
devices 6
enthusi@@ 6
sooners 6
progress 6
column 6
main@@ 6
circus 6
lipstick 6
clothed 6
connected 6
used 6
afri@@ 6
dos 6
hip@@ 6
quad 6
seattle 6
fish@@ 6
lie 6
ribbons 6
vic@@ 6
stars 6
conte@@ 6
piles 6
pet@@ 6
ceremonial 6
handheld 6
excitedly 6
scent 6
camp@@ 6
bob 6
walkers 6
cou@@ 6
features 6
bunny 6
cept 6
stair 6
constructed 6
hon@@ 6
follow 6
unloading 6
floors 6
ep@@ 6
oun@@ 6
ffy 6
jumpsuits 6
bill@@ 6
dark@@ 6
alco@@ 6
port 6
inclu@@ 6
crafting 6
util@@ 6
hearts 6
ond 6
dom@@ 6
veget@@ 6
wheelchairs 6
pedal 6
skateboarders 6
band@@ 6
stride 6
special 6
mature 6
popcorn 6
sprinklers 6
legos 6
completely 6
toe 6
lower 6
waterside 6
kiosk 6
cas@@ 6
boogie 6
portable 6
cash 6
fit 6
dressing 6
test 6
festi@@ 6
eman 6
creates 6
whe@@ 6
10 6
bikinis 6
barri@@ 6
nurse 6
anci@@ 6
cocon@@ 6
surge@@ 6
sla@@ 6
thy 6
mini@@ 6
scissors 6
rusty 6
x@@ 6
dessert 6
saris 6
double 6
miami 6
prou@@ 6
scattered 6
pub 6
seagulls 6
missing 6
gling 6
deserted 6
scho@@ 6
refer@@ 6
mis@@ 6
checkout 6
wet@@ 6
ornam@@ 6
contem@@ 6
kicked 6
prote@@ 6
swan 6
fashi@@ 6
key 6
wit@@ 6
parallel 6
occu@@ 6
mule 6
graph@@ 6
carou@@ 6
fixes 6
senior 6
ounds 6
bby 6
bulldozer 6
dges 6
ght@@ 6
political 6
convenience 6
nearly 6
university 6
focus 6
pom@@ 6
clutching 6
gowns 6
congregate 6
crest 6
badminton 6
wards 5
mou@@ 5
plies 5
sage 5
antique 5
zer 5
constru@@ 5
torches 5
oth 5
frog 5
jewel@@ 5
welcome 5
opped 5
hom@@ 5
lee@@ 5
tar@@ 5
da 5
pride 5
commu@@ 5
ams 5
bin@@ 5
vision 5
gle 5
consul@@ 5
cher@@ 5
sour@@ 5
cheer@@ 5
wake@@ 5
disney 5
ghtly 5
exam@@ 5
island 5
tongs 5
cent 5
verti@@ 5
slee@@ 5
youn@@ 5
sat@@ 5
angels 5
robot 5
ities 5
pauses 5
combat 5
mirro@@ 5
lam@@ 5
wood@@ 5
techn@@ 5
zard 5
chers 5
cav@@ 5
ox@@ 5
un 5
ative 5
message 5
trou@@ 5
challenge 5
popu@@ 5
affe@@ 5
mail@@ 5
commun@@ 5
boss 5
brac@@ 5
iz@@ 5
anti@@ 5
stret@@ 5
pons 5
beg@@ 5
tat@@ 5
chat 5
bay 5
passi@@ 5
bus@@ 5
physi@@ 5
ren@@ 5
wakeboard 5
mannequin 5
ey 5
balan@@ 5
ama@@ 5
proc@@ 5
ession 5
gy@@ 5
cargo 5
memorial 5
adm@@ 5
elev@@ 5
em 5
ya@@ 5
stock 5
sou@@ 5
hill@@ 5
ici@@ 5
parachutes 5
asphal@@ 5
shado@@ 5
whole 5
carri@@ 5
marches 5
baton 5
high@@ 5
pass@@ 5
den@@ 5
ep 5
conditions 5
ature 5
cy 5
banan@@ 5
sem@@ 5
tage 5
uk@@ 5
tag@@ 5
our@@ 5
tumbling 5
inf@@ 5
xt 5
punk 5
pai@@ 5
bee 5
cir@@ 5
appro@@ 5
rain@@ 5
cakes 5
chips 5
00 5
hero 5
accep@@ 5
pedestri@@ 5
assor@@ 5
latin 5
saxoph@@ 5
rock@@ 5
oing 5
embr@@ 5
film 5
gham 5
ares 5
soa@@ 5
proje@@ 5
sim@@ 5
xi@@ 5
ld 5
snap 5
stro 5
craft@@ 5
passer@@ 5
bull@@ 5
massi@@ 5
ado@@ 5
fran@@ 5
blur@@ 5
fic 5
attendant 5
thor@@ 5
tend 5
ady 5
ade 5
rail@@ 5
descen@@ 5
terminal 5
fisher@@ 5
americ@@ 5
caricature 5
lable 5
ie 5
rer 5
ia 5
cookies 5
tun@@ 5
tambour@@ 5
pied 5
breaks 5
alls 5
consi@@ 5
odle 5
lean@@ 5
bil@@ 5
gum 5
domino@@ 5
tures 5
lun@@ 5
arrive 5
poin@@ 5
nike 5
assistant 5
store@@ 5
surroun@@ 5
sub@@ 5
ure 5
ack@@ 5
bon@@ 5
ster@@ 5
mon 5
ina 5
bronze 5
cockpit 5
gent 5
skim@@ 5
span@@ 5
dex 5
cau@@ 5
ires 5
rit@@ 5
prom@@ 5
oting 5
rap@@ 5
scout 5
businessman 5
ore@@ 5
stle 5
lanter@@ 5
amish 5
expressions 5
obama 5
thro@@ 5
ssi@@ 5
itch 5
ick 5
manu@@ 5
under@@ 5
lingerie 5
kimonos 5
ggles 5
tem@@ 5
them@@ 5
phants 5
igh 5
ki 5
mcdonalds 5
jap@@ 5
im 5
snowboar@@ 5
ket@@ 5
maid 5
emp@@ 5
cowgirl 5
fra@@ 5
accompan@@ 5
nic 5
contin@@ 5
intere@@ 5
pel@@ 5
ipod 5
ied 5
kie 5
mmed 5
navig@@ 5
heal@@ 5
sons 5
va 5
chant 5
champagne 5
kne@@ 5
lasso 5
padd@@ 5
law 5
ford 5
mate 5
swim@@ 5
designer 5
ices 5
atta@@ 5
ebr@@ 5
positi@@ 5
bol 5
pol@@ 5
mag@@ 5
ird 4
gam@@ 4
propane 4
villa@@ 4
tru@@ 4
sky@@ 4
direct@@ 4
brochure 4
trem@@ 4
respon@@ 4
volkswagen 4
mascara 4
positions 4
automobile 4
structures 4
speedo 4
princ@@ 4
bor 4
mea@@ 4
icking 4
statues 4
q 4
deere 4
ater 4
bud@@ 4
plat@@ 4
dem@@ 4
one@@ 4
sages 4
kin 4
atten@@ 4
kilts 4
steaks 4
trombone 4
bru@@ 4
iller 4
gaphone 4
kitchenaid 4
toast 4
substance 4
cupcakes 4
gan 4
tim 4
tons 4
figu@@ 4
tri 4
phin 4
liber@@ 4
key@@ 4
pant 4
fati@@ 4
far@@ 4
questi@@ 4
force 4
tickets 4
washington 4
qui@@ 4
gyp@@ 4
sy 4
sniff@@ 4
cause 4
participants 4
star@@ 4
piercing 4
lear@@ 4
technique 4
bear@@ 4
solo 4
ken 4
nant 4
mickey 4
clean@@ 4
fitness 4
st. 4
moun@@ 4
clip@@ 4
seagul@@ 4
hen@@ 4
kick@@ 4
rem@@ 4
z 4
stro@@ 4
ssure 4
mounta@@ 4
archite@@ 4
ements 4
ft 4
oni@@ 4
grin@@ 4
fal@@ 4
essi@@ 4
lets 4
cupcake 4
dal 4
crayon 4
technolo@@ 4
gay 4
ick@@ 4
cho@@ 4
restaur@@ 4
eting 4
pain@@ 4
ton 4
guitari@@ 4
lama 4
erial 4
yst@@ 4
vest@@ 4
spea@@ 4
jazz 4
ini@@ 4
south 4
basket@@ 4
equip@@ 4
org@@ 4
bracelet 4
adorable 4
nor@@ 4
pati@@ 4
ct@@ 4
nur@@ 4
dor@@ 4
once 4
za@@ 4
western 4
rin@@ 4
engage 4
oklahoma 4
pun@@ 4
natu@@ 4
lap@@ 4
repor@@ 4
oed 4
kickboxing 4
impressi@@ 4
iti@@ 4
kil@@ 4
dan 4
tou@@ 4
ball@@ 4
roses 4
ken@@ 4
slip 4
drop 4
locomoti@@ 4
lar@@ 4
descend 4
fe 4
prof@@ 4
ctors 4
bir@@ 4
latin@@ 4
ney 4
dation 4
lation 4
blan@@ 4
dau@@ 4
ghters 4
compe@@ 4
cob@@ 4
gig@@ 4
participat@@ 4
seniors 4
puzzle 4
zo@@ 4
icked 4
fic@@ 4
fluore@@ 4
termin@@ 4
mess@@ 4
rist@@ 4
stair@@ 4
dings 4
ine@@ 4
boul@@ 4
pirates 4
note 4
enjo@@ 4
attraction 4
20@@ 4
som@@ 4
file 4
lo 4
union 4
gras@@ 4
yamaha 4
rollerbla@@ 4
frustr@@ 4
buggy 4
pong 4
caf@@ 4
eria 4
mode@@ 4
lass@@ 4
triangle 4
muzz@@ 4
vegas 4
sam@@ 4
stum@@ 4
taxis 4
doo 4
unicef 4
las 4
forces 4
monster 4
collection 4
ek 4
electron@@ 4
prim@@ 4
artifici@@ 4
san 4
dunes 4
itting 4
twi@@ 4
ble@@ 4
cher 4
twister 4
ray@@ 4
vol@@ 4
sumo 4
baller@@ 4
fir@@ 4
hawk 4
gie 4
aks 4
intense 4
cram@@ 4
dunk 4
ility 4
ey@@ 4
suppor@@ 4
fix@@ 4
fighter 4
jogg@@ 4
ma 4
boston 4
patrio@@ 4
wei@@ 4
explo@@ 4
gymna@@ 4
enf@@ 4
arrang@@ 4
vel@@ 4
mac 4
prepar@@ 4
stal@@ 4
proxim@@ 4
tran@@ 4
starbucks 4
grimac@@ 4
fine 4
oper 4
sign@@ 4
wns 4
balcon@@ 4
geish@@ 4
graphi@@ 4
separ@@ 4
parasol 4
spect@@ 4
chinatown 4
mor@@ 4
ther@@ 4
chem@@ 4
drainage 4
possession 4
just@@ 3
rai 3
river@@ 3
crou@@ 3
phones 3
walkie 3
talkie 3
loun@@ 3
flambo@@ 3
yant 3
cani@@ 3
mid@@ 3
mob@@ 3
vent 3
hambur@@ 3
walk@@ 3
cop@@ 3
ori@@ 3
services 3
progra@@ 3
rectangu@@ 3
trum@@ 3
comp@@ 3
ass 3
kara@@ 3
cages 3
unusu@@ 3
zen 3
laces 3
12 3
anim@@ 3
aids 3
pump@@ 3
vacuum@@ 3
pharm@@ 3
batt@@ 3
cac@@ 3
handicap@@ 3
ym@@ 3
panda 3
mannequins 3
kart 3
eth@@ 3
route 3
hamburgers 3
ninj@@ 3
eless 3
spiderman 3
cen@@ 3
chev@@ 3
shin@@ 3
olo@@ 3
tas@@ 3
sely 3
ttery 3
stronau@@ 3
golf@@ 3
moti@@ 3
flot@@ 3
tting 3
turbans 3
tricycles 3
ohio 3
sai@@ 3
bum 3
dojo 3
toyota 3
ov@@ 3
pages 3
dir@@ 3
dig@@ 3
shampo@@ 3
corn@@ 3
sils 3
formations 3
chor@@ 3
fur@@ 3
ctu@@ 3
ant@@ 3
burger 3
das 3
ei@@ 3
crocodile 3
jun@@ 3
rine 3
allow 3
latex 3
wat@@ 3
coin 3
expre@@ 3
mom@@ 3
sar@@ 3
aves 3
mur@@ 3
cles 3
suite 3
parka 3
pal@@ 3
wii 3
peop@@ 3
appli@@ 3
boa 3
adolescent 3
patron 3
kni@@ 3
transport 3
trol@@ 3
iff@@ 3
session 3
lego 3
featu@@ 3
onloo@@ 3
aqu@@ 3
ange 3
attend 3
retriever 3
dou@@ 3
tant 3
cand@@ 3
spot@@ 3
discu@@ 3
wrest@@ 3
bom@@ 3
fan@@ 3
zed 3
cy@@ 3
ollie 3
ore 3
itation 3
pra@@ 3
border 3
eu@@ 3
fou@@ 3
crocs 3
pies 3
num@@ 3
impro@@ 3
vement 3
ne 3
kitty 3
inspect@@ 3
mass@@ 3
para@@ 3
ile 3
portraits 3
ton@@ 3
windo@@ 3
gout 3
piercings 3
coney 3
simultan@@ 3
asi@@ 3
loa@@ 3
lei 3
tis@@ 3
spectacu@@ 3
thoscope 3
cade 3
ligh@@ 3
capes 3
prun@@ 3
ues 3
mb 3
pop@@ 3
zombie 3
ness 3
explosion 3
appl@@ 3
son@@ 3
horizon@@ 3
iter 3
bucks 3
effort 3
beagle 3
comm@@ 3
camer@@ 3
pony@@ 3
haw@@ 3
sel@@ 3
sari 3
sig@@ 3
plast@@ 3
mexic@@ 3
tresses 3
audi@@ 3
costum@@ 3
vide 3
timate 3
acrobat@@ 3
leot@@ 3
scream@@ 3
ga@@ 3
umin@@ 3
um 3
lows 3
new@@ 3
ckets 3
fee@@ 3
fel@@ 3
: 3
menus 3
sus 3
conc@@ 3
tout 3
tutus 3
backp@@ 3
vern@@ 3
quel@@ 3
ises 3
sauna 3
va@@ 3
index 3
paintball 3
body@@ 3
inten@@ 3
powerpoint 3
respe@@ 3
ctive 3
note@@ 3
eld 3
sk 3
aver@@ 3
scri@@ 3
ambu@@ 3
lance 3
salu@@ 3
mas 3
don 3
ponchos 3
condu@@ 3
neck@@ 3
fit@@ 3
spen@@ 3
ea@@ 3
door@@ 3
mel@@ 3
trio 3
mo 3
dress@@ 3
du 3
bit@@ 3
sque 3
ier 3
les@@ 3
bmw 3
aga@@ 3
colum@@ 3
ron@@ 3
mem@@ 3
poker 3
paras@@ 3
ican 3
poncho 3
mets 3
dgers 3
inse@@ 3
fortune 3
sent@@ 3
stant 3
scienti@@ 3
long@@ 3
tum@@ 3
trouble 3
dor 3
former 3
ssing 3
vietnam@@ 3
oxford 3
bean@@ 3
sy@@ 3
nintendo 3
gi 3
pause 3
rela@@ 3
tt 3
cades 3
mock 3
potat@@ 3
oes 3
mine 3
mariachi 3
sombrero 3
porter 3
tuba 3
cock@@ 3
lead@@ 3
califor@@ 3
san@@ 3
50 3
patri@@ 3
bout 3
climb@@ 3
barbie 3
pli@@ 3
ples 3
spor@@ 3
beauti@@ 3
pier@@ 3
titude 3
sexy 3
ouse 3
hollister 3
page 3
relax@@ 3
care@@ 3
joh@@ 3
berlin 3
ach@@ 3
cad@@ 3
ritu@@ 3
scope 3
lakers 3
diver@@ 3
lev@@ 3
polit@@ 3
zombies 3
mart 3
focu@@ 3
quar@@ 3
blonds 3
suspen@@ 3
bran@@ 3
incl@@ 3
ly@@ 3
ees 3
regar@@ 2
enti@@ 2
approa@@ 2
iers 2
dent 2
plan 2
circuit 2
vari@@ 2
conne@@ 2
oli@@ 2
neigh@@ 2
edly 2
vin 2
orig@@ 2
particu@@ 2
swor@@ 2
aci@@ 2
patter@@ 2
bonnet 2
ances 2
spin@@ 2
aff@@ 2
tric@@ 2
diffic@@ 2
class@@ 2
situation 2
bes 2
sous 2
ama 2
fris@@ 2
lent 2
possi@@ 2
mer 2
stem 2
dic@@ 2
quat@@ 2
notre 2
dame 2
eles 2
occasion 2
pel 2
gion 2
bas 2
incen@@ 2
trav@@ 2
cares@@ 2
percussion 2
gall@@ 2
prin@@ 2
pig@@ 2
ston 2
erie 2
conditi@@ 2
traverse 2
ques 2
cano@@ 2
obscu@@ 2
pret@@ 2
cture 2
jama 2
harve@@ 2
ption 2
con 2
oth@@ 2
centr@@ 2
jam@@ 2
cray@@ 2
adul@@ 2
bou@@ 2
cot@@ 2
gon@@ 2
illy 2
cho 2
cost@@ 2
teet@@ 2
pt 2
chet 2
carav@@ 2
mountain@@ 2
aut@@ 2
lars 2
ing@@ 2
rack@@ 2
presen@@ 2
suc@@ 2
met 2
mal 2
ret 2
mati@@ 2
football@@ 2
vous 2
joy@@ 2
uti@@ 2
pris 2
bes@@ 2
pane 2
bridesm@@ 2
fs 2
dia@@ 2
gos 2
syn@@ 2
diti@@ 2
portant 2
rav@@ 2
cil 2
stuff@@ 2
sales 2
ind@@ 2
xing 2
bott@@ 2
ette 2
desig@@ 2
ass@@ 2
central 2
ave@@ 2
scaffol@@ 2
hydr@@ 2
circu@@ 2
faux 2
que 2
grill@@ 2
inju@@ 2
non 2
ha 2
inform@@ 2
instructions 2
pour 2
cle 2
rib@@ 2
noc@@ 2
distri@@ 2
turn@@ 2
asses 2
fau@@ 2
writ@@ 2
esa@@ 2
cartons 2
wine@@ 2
kets 2
pays 2
boo@@ 2
jets 2
agit@@ 2
aper 2
tabl@@ 2
all@@ 2
whi@@ 2
iser 2
ot@@ 2
wag@@ 2
journal 2
scu@@ 2
sweat 2
indu@@ 2
cket 2
,@@ 2
shop@@ 2
exerc@@ 2
internet 2
gir@@ 2
participant 2
nies 2
jou@@ 2
une 2
bicyc@@ 2
shor@@ 2
spa 2
challen@@ 2
men@@ 2
repair@@ 2
ried 2
bone 2
paper@@ 2
ire 2
compl@@ 2
roof@@ 2
brief@@ 2
buff@@ 2
shoul@@ 2
lig@@ 2
fare 2
inged 2
rose 2
gul@@ 2
lau@@ 2
was@@ 2
chop@@ 2
slal@@ 2
news@@ 2
vise 2
identi@@ 2
cers 2
nel 2
veral 2
ron 2
ino 2
even@@ 2
born 2
shaw@@ 2
projection 2
twe@@ 2
iler 2
tin 2
port@@ 2
gon 2
ial 2
iment 2
eas@@ 2
hy@@ 2
applau@@ 2
ena 2
oce@@ 2
vention 2
flow@@ 2
invol@@ 2
classi@@ 2
labra@@ 2
documents 2
rele@@ 2
comb@@ 2
vin@@ 2
ensemble 2
nov@@ 2
tea@@ 2
sum@@ 2
jet@@ 2
eg@@ 2
complet@@ 2
achers 2
avi@@ 2
illumin@@ 2
conven@@ 2
isc@@ 2
velo@@ 2
ong@@ 2
lons 2
nin@@ 2
ite@@ 2
sten@@ 2
skul@@ 2
melons 2
stern 2
tions 2
mani@@ 2
laborat@@ 2
mau@@ 2
chur@@ 2
jum@@ 2
engag@@ 2
ann@@ 2
mly 2
aling 2
bli@@ 2
entre@@ 2
ench 2
furi@@ 2
envelo@@ 2
ign@@ 2
% 2
citiz@@ 2
hard@@ 2
violet 2
respecti@@ 2
brow@@ 2
grass@@ 2
sues 2
check@@ 2
xy@@ 2
stom@@ 2
neu@@ 2
han@@ 2
admire 2
direct 2
cellu@@ 2
shou@@ 2
ari@@ 2
ene 2
nd 2
manipu@@ 2
puzz@@ 2
ordin@@ 2
boutique 2
locks 2
ai 2
acro@@ 2
nat@@ 2
offici@@ 2
slim 2
plaque 2
moder@@ 2
lace 2
lac 2
embrac@@ 2
civ@@ 2
acces@@ 2
kimon@@ 2
oti@@ 2
bandan@@ 2
alled 2
oh 2
cross@@ 2
ouvre 2
cue 2
partment 2
olympi@@ 2
herd 2
gun@@ 2
passer 2
plom@@ 2
dam@@ 2
ang 2
escal@@ 2
den 2
bystand@@ 2
zz@@ 2
gant 2
stun@@ 2
fini@@ 2
boar@@ 2
aud@@ 2
ale 2
ences 2
track@@ 2
rines 2
vie 2
oles 2
ota 2
ign 2
dribble 2
los 2
deser@@ 2
plume 2
amar@@ 2
maje@@ 2
gar 1
uniform@@ 1
sup@@ 1
lage 1
appr@@ 1
courts 1
dinosau@@ 1
combin@@ 1
sul@@ 1
lins 1
ising 1
align@@ 1
footed 1
caban@@ 1
hea@@ 1
unes 1
isi@@ 1
mains 1
infir@@ 1
video@@ 1
naval 1
demand@@ 1
tis 1
ssion 1
rol@@ 1
wheel@@ 1
fabri@@ 1
sil 1
rect@@ 1
ket 1
dev@@ 1
inc@@ 1
shooter 1
ening 1
christ@@ 1
wel 1
casserole 1
chall@@ 1
net@@ 1
lux@@ 1
attr@@ 1
scriptions 1
business@@ 1
pap@@ 1
rapped 1
contrac@@ 1
polos 1
spectat@@ 1
aisi@@ 1
adolesc@@ 1
hawai@@ 1
ghter 1
immense 1
chic@@ 1
yar@@ 1
secon@@ 1
ille 1
venir 1
euro@@ 1
alie 1
hors 1
oeu@@ 1
vres 1
motif 1
ben@@ 1
attle 1
grave@@ 1
tomb@@ 1
trib@@ 1
suring 1
rette 1
yo@@ 1
chal@@ 1
ou 1
attemp@@ 1
soon@@ 1
expl@@ 1
sible 1
mol@@ 1
distribu@@ 1
bies 1
che 1
rai@@ 1
xim@@ 1
aspir@@ 1
oran@@ 1
pre 1
tooth@@ 1
ington 1
inspec@@ 1
canon 1
pizzeria 1
silhouettes 1
inst@@ 1
cup@@ 1
bonnets 1
ttes 1
au 1
bon 1
alle@@ 1
quo@@ 1
court@@ 1
label@@ 1
leap@@ 1
accordi@@ 1
peu@@ 1
gue 1
bbing 1
public@@ 1
bermuda 1
stes 1
agricul@@ 1
spr@@ 1
mal@@ 1
toboggan 1
sa 1
brand@@ 1
power@@ 1
bikin@@ 1
sombrer@@ 1
ima@@ 1
mill 1
bik@@ 1
flor@@ 1
sax@@ 1
zzy 1
univer@@ 1
mak@@ 1
comman@@ 1
pizz@@ 1
vide@@ 1
panor@@ 1
aband@@ 1
butter@@ 1
laugh@@ 1
mit@@ 1
monit@@ 1
tritus 1
flan@@ 1
busin@@ 1
esses 1
ane 1
social@@ 1
appla@@ 1
plac@@ 1
shir@@ 1
mousta@@ 1
dder 1
musc@@ 1
eric@@ 1
deo 1
ffe@@ 1
yh@@ 1
rayed 1
sav@@ 1
labrador 1
hab@@ 1
stand@@ 1
sang 1
mun@@ 1
client 1
casque 1
oire 1
ballons 1
outf@@ 1
nu 1
heav@@ 1
squee@@ 1
ree 1
craf@@ 1
swee@@ 1
rent 1
itude 1
perform@@ 1
practi@@ 1
grimaces 1
mic@@ 1
pist@@ 1
colo@@ 1
esp@@ 1
barbel@@ 1
fest@@ 1
volley 1
bed@@ 1
red@@ 1
gars 1
lared 1
vette 1
attractions 1
snea@@ 1
perpl@@ 1
again@@ 1
fighters 1
pian@@ 1
crav@@ 1
passage 1
carton 1
ferm@@ 1
entation 1
riers 1
tens 1
dwalk 1
drome 1
outi@@ 1
impre@@ 1
sque@@ 1
kaki 1
ffe 1
wai@@ 1
py@@ 1
xylo@@ 1
skate@@ 1
tux@@ 1
auto 1
centre 1
tus 1
ever@@ 1
automob@@ 1
iles 1
bers 1
vir@@ 1
ope 1
dus 1
mach@@ 1
chu 1
appu@@ 1
loy@@ 1
parasa@@ 1
mout@@ 1
pho@@ 1
ix 1
chine 1
mot@@ 1
allu@@ 1
furn@@ 1
q@@ 1
dread@@ 1
situ@@ 1
numer@@ 1
ety 1
oking 1
tele@@ 1
eur 1
scrip@@ 1
tho@@ 1
ert 1
milit@@ 1
passag@@ 1
idi@@ 1
forest@@ 1
hosp@@ 1
crev@@ 1
chute 1
sham@@ 1
scen@@ 1
eurs 1
tread@@ 1
nie 1
shirt@@ 1
tiss@@ 1
performan@@ 1
shep@@ 1
fant@@ 1
chas@@ 1
fore 1
tral 1
borne 1
dump@@ 1
congre@@ 1
pelo@@ 1
si 1
visi@@ 1
kite@@ 1
assist@@ 1
pod 1
pav@@ 1
ades 1
ole 1
custom@@ 1
mignon 1
grav@@ 1
enou@@ 1
ez 1
loc@@ 1
tam@@ 1
ye 1
di 1
ga 1
nage 1
parall@@ 1
chemise 1
papa 1
ful@@ 1
bene@@ 1
ricksha@@ 1
ures 1
fai@@ 1
after@@ 1
ac 1
produ@@ 1
masculine 1
resque 1
coupe 1
adverti@@ 1
capit@@ 1
ital 1
squat@@ 1
autom@@ 1
7@@ 1
gent@@ 1
val@@ 1
dure 1
icycles 1
bron@@ 1
invisible 1
anniver@@ 1
ain@@ 1
supporters 1
tom@@ 1
elets 1
entran@@ 1
clar@@ 1
orn@@ 1
arriv@@ 1
bub@@ 1
stration 1
polic@@ 1
$ 1
sph@@ 1
tale 1
bras 1
gag@@ 1
afro 1
ement@@ 1
spee@@ 1
traver@@ 1
vert 1
cep@@ 1
kar@@ 1
dio 1
enth@@ 1
aven@@ 1
entr@@ 1
yway 1
ee 1
cauc@@ 1
reli@@ 1
dit 1
orient 1
ir 1
nea@@ 1
pay@@ 1
tory 1
articles 1
with@@ 1
mod@@ 1
arc 1
observ@@ 1
ory 1
marine 1
iting 1
dess@@ 1
by@@ 1
lif@@ 1
nis 1
dale 1
esc@@ 1
fro 1
volle@@ 1
sole@@ 1
ength 1
charge 1
inent 1
loin 1
gile 1
barb@@ 1
jer@@ 1
maine 1
mc@@ 1
esse 1
establi@@ 1
peloton 1
mering 1
musi@@ 1
pos 1
shment 1
bols 1
chalk@@ 1
shing@@ 1
sures 1
filets 1
mp@@ 1
trace 1
ait 1
dy@@ 1
exer@@ 1
fon@@ 1
wheelbar@@ 1
rn@@ 1
din 1
smil@@ 1
protection 1
cow@@ 1
fume 1
gency 1
stil@@ 1
document 1
synchron@@ 1
sac 1
harmon@@ 1
binocu@@ 1
gne 1
urg@@ 1
race@@ 1
garden@@ 1
fum@@ 1
quarter@@ 1
rollers 1
grat@@ 1
photo@@ 1
journal@@ 1
za 1
ry@@ 1
liqui@@ 1
donal@@ 1
illo@@ 1
lette 1
arro@@ 1
par 1
chats 1
yc@@ 1
vel 1
adolescents 1
quette 1
verse 1
parti@@ 1
chap@@ 1
differ@@ 1
table@@ 1
rece@@ 1
tram@@ 1
gratu@@ 1
trac@@ 1
mono@@ 1
bulldo@@ 1
transpor@@ 1
asse 1
obstacles 1
cuit 1
ague 1
seu@@ 1
brit@@ 1
athle@@ 1
argent@@ 1
phi@@ 1
concer@@ 1
spra@@ 1
may@@ 1
fea@@ 1
aises 1
pics 1
auto@@ 1
id@@ 1
vit@@ 1
od@@ 1
nam@@ 1
tron@@ 1
leur 1
bo 1
cham@@ 1
ica 1
plumes 1
horse@@ 1
ctures 1
cuisine 1
bel 1
= 1
tos 1
yer 1
sembl@@ 1
